{
  "version": "1.0",
  "truncation": null,
  "padding": null,
  "added_tokens": [
    {
      "id": 0,
      "special": true,
      "content": "<PAD>",
      "single_word": false,
      "lstrip": false,
      "rstrip": false,
      "normalized": false
    },
    {
      "id": 1,
      "special": true,
      "content": "<MASK>",
      "single_word": false,
      "lstrip": false,
      "rstrip": false,
      "normalized": false
    },
    {
      "id": 2,
      "special": true,
      "content": "<BOS>",
      "single_word": false,
      "lstrip": false,
      "rstrip": false,
      "normalized": false
    },
    {
      "id": 3,
      "special": true,
      "content": "<EOS>",
      "single_word": false,
      "lstrip": false,
      "rstrip": false,
      "normalized": false
    },
    {
      "id": 4,
      "special": true,
      "content": "<SEP>",
      "single_word": false,
      "lstrip": false,
      "rstrip": false,
      "normalized": false
    },
    {
      "id": 5,
      "special": true,
      "content": "<UNK>",
      "single_word": false,
      "lstrip": false,
      "rstrip": false,
      "normalized": false
    }
  ],
  "normalizer": null,
  "pre_tokenizer": {
    "type": "ByteLevel",
    "add_prefix_space": false,
    "trim_offsets": true
  },
  "post_processor": {
    "type": "ByteLevel",
    "add_prefix_space": true,
    "trim_offsets": false
  },
  "decoder": {
    "type": "ByteLevel",
    "add_prefix_space": true,
    "trim_offsets": true
  },
  "model": {
    "type": "BPE",
    "dropout": null,
    "unk_token": null,
    "continuing_subword_prefix": null,
    "end_of_word_suffix": null,
    "vocab": {
      "<PAD>": 0,
      "<MASK>": 1,
      "<BOS>": 2,
      "<EOS>": 3,
      "<SEP>": 4,
      "<UNK>": 5,
      "!": 6,
      "\"": 7,
      "#": 8,
      "$": 9,
      "%": 10,
      "&": 11,
      "'": 12,
      "(": 13,
      ")": 14,
      "*": 15,
      "+": 16,
      ",": 17,
      "-": 18,
      ".": 19,
      "/": 20,
      "0": 21,
      "1": 22,
      "2": 23,
      "3": 24,
      "4": 25,
      "5": 26,
      "6": 27,
      "7": 28,
      "8": 29,
      "9": 30,
      ":": 31,
      ";": 32,
      "<": 33,
      "=": 34,
      ">": 35,
      "?": 36,
      "@": 37,
      "A": 38,
      "B": 39,
      "C": 40,
      "D": 41,
      "E": 42,
      "F": 43,
      "G": 44,
      "H": 45,
      "I": 46,
      "J": 47,
      "K": 48,
      "L": 49,
      "M": 50,
      "N": 51,
      "O": 52,
      "P": 53,
      "Q": 54,
      "R": 55,
      "S": 56,
      "T": 57,
      "U": 58,
      "V": 59,
      "W": 60,
      "X": 61,
      "Y": 62,
      "Z": 63,
      "[": 64,
      "\\": 65,
      "]": 66,
      "^": 67,
      "_": 68,
      "`": 69,
      "a": 70,
      "b": 71,
      "c": 72,
      "d": 73,
      "e": 74,
      "f": 75,
      "g": 76,
      "h": 77,
      "i": 78,
      "j": 79,
      "k": 80,
      "l": 81,
      "m": 82,
      "n": 83,
      "o": 84,
      "p": 85,
      "q": 86,
      "r": 87,
      "s": 88,
      "t": 89,
      "u": 90,
      "v": 91,
      "w": 92,
      "x": 93,
      "y": 94,
      "z": 95,
      "{": 96,
      "|": 97,
      "}": 98,
      "~": 99,
      "¡": 100,
      "¢": 101,
      "£": 102,
      "¤": 103,
      "¥": 104,
      "¦": 105,
      "§": 106,
      "¨": 107,
      "©": 108,
      "ª": 109,
      "«": 110,
      "¬": 111,
      "®": 112,
      "¯": 113,
      "°": 114,
      "±": 115,
      "²": 116,
      "³": 117,
      "´": 118,
      "µ": 119,
      "¶": 120,
      "·": 121,
      "¸": 122,
      "¹": 123,
      "º": 124,
      "»": 125,
      "¼": 126,
      "½": 127,
      "¾": 128,
      "¿": 129,
      "À": 130,
      "Á": 131,
      "Â": 132,
      "Ã": 133,
      "Ä": 134,
      "Å": 135,
      "Æ": 136,
      "Ç": 137,
      "È": 138,
      "É": 139,
      "Ê": 140,
      "Ë": 141,
      "Ì": 142,
      "Í": 143,
      "Î": 144,
      "Ï": 145,
      "Ð": 146,
      "Ñ": 147,
      "Ò": 148,
      "Ó": 149,
      "Ô": 150,
      "Õ": 151,
      "Ö": 152,
      "×": 153,
      "Ø": 154,
      "Ù": 155,
      "Ú": 156,
      "Û": 157,
      "Ü": 158,
      "Ý": 159,
      "Þ": 160,
      "ß": 161,
      "à": 162,
      "á": 163,
      "â": 164,
      "ã": 165,
      "ä": 166,
      "å": 167,
      "æ": 168,
      "ç": 169,
      "è": 170,
      "é": 171,
      "ê": 172,
      "ë": 173,
      "ì": 174,
      "í": 175,
      "î": 176,
      "ï": 177,
      "ð": 178,
      "ñ": 179,
      "ò": 180,
      "ó": 181,
      "ô": 182,
      "õ": 183,
      "ö": 184,
      "÷": 185,
      "ø": 186,
      "ù": 187,
      "ú": 188,
      "û": 189,
      "ü": 190,
      "ý": 191,
      "þ": 192,
      "ÿ": 193,
      "Ā": 194,
      "ā": 195,
      "Ă": 196,
      "ă": 197,
      "Ą": 198,
      "ą": 199,
      "Ć": 200,
      "ć": 201,
      "Ĉ": 202,
      "ĉ": 203,
      "Ċ": 204,
      "ċ": 205,
      "Č": 206,
      "č": 207,
      "Ď": 208,
      "ď": 209,
      "Đ": 210,
      "đ": 211,
      "Ē": 212,
      "ē": 213,
      "Ĕ": 214,
      "ĕ": 215,
      "Ė": 216,
      "ė": 217,
      "Ę": 218,
      "ę": 219,
      "Ě": 220,
      "ě": 221,
      "Ĝ": 222,
      "ĝ": 223,
      "Ğ": 224,
      "ğ": 225,
      "Ġ": 226,
      "ġ": 227,
      "Ģ": 228,
      "ģ": 229,
      "Ĥ": 230,
      "ĥ": 231,
      "Ħ": 232,
      "ħ": 233,
      "Ĩ": 234,
      "ĩ": 235,
      "Ī": 236,
      "ī": 237,
      "Ĭ": 238,
      "ĭ": 239,
      "Į": 240,
      "į": 241,
      "İ": 242,
      "ı": 243,
      "Ĳ": 244,
      "ĳ": 245,
      "Ĵ": 246,
      "ĵ": 247,
      "Ķ": 248,
      "ķ": 249,
      "ĸ": 250,
      "Ĺ": 251,
      "ĺ": 252,
      "Ļ": 253,
      "ļ": 254,
      "Ľ": 255,
      "ľ": 256,
      "Ŀ": 257,
      "ŀ": 258,
      "Ł": 259,
      "ł": 260,
      "Ń": 261,
      "Ġt": 262,
      "Ġa": 263,
      "he": 264,
      "in": 265,
      "Ġthe": 266,
      "Ġs": 267,
      "re": 268,
      "Ġw": 269,
      "Ġo": 270,
      "is": 271,
      "er": 272,
      "nd": 273,
      "Ġf": 274,
      "Ġm": 275,
      "Ġb": 276,
      "it": 277,
      "at": 278,
      "ing": 279,
      "Ġc": 280,
      "en": 281,
      "es": 282,
      "or": 283,
      "ou": 284,
      "Ġth": 285,
      "on": 286,
      "Ġh": 287,
      "ll": 288,
      "an": 289,
      "Ġand": 290,
      "Ġto": 291,
      "Ġof": 292,
      "Ġp": 293,
      "ar": 294,
      "Ġd": 295,
      "ed": 296,
      "as": 297,
      "Ġin": 298,
      "Ġl": 299,
      "om": 300,
      "Ġis": 301,
      "ĠI": 302,
      "ic": 303,
      "br": 304,
      "Ġg": 305,
      "Ġ/": 306,
      "Ġ/>": 307,
      "le": 308,
      "Ġe": 309,
      "ot": 310,
      "Ġn": 311,
      "ut": 312,
      "al": 313,
      "st": 314,
      "ct": 315,
      "ly": 316,
      "Ġit": 317,
      "Ġbe": 318,
      "ve": 319,
      "il": 320,
      "ie": 321,
      "Ġmo": 322,
      "ĠT": 323,
      "Ġre": 324,
      "Ġon": 325,
      "Ġthat": 326,
      "ver": 327,
      "ow": 328,
      "ad": 329,
      "ent": 330,
      "Ġhe": 331,
      "'s": 332,
      "im": 333,
      "ion": 334,
      "Ġthis": 335,
      "ay": 336,
      "Ġwh": 337,
      "Ġst": 338,
      "se": 339,
      "et": 340,
      "gh": 341,
      "id": 342,
      "ch": 343,
      "Ġwas": 344,
      "Ġmov": 345,
      "Ġy": 346,
      "Ġ/><": 347,
      "ith": 348,
      "ilm": 349,
      "all": 350,
      "Ġfor": 351,
      "Ġfilm": 352,
      "oo": 353,
      "Ġas": 354,
      "Ġu": 355,
      "ce": 356,
      "Ġwith": 357,
      "Ġan": 358,
      "ke": 359,
      "am": 360,
      "ld": 361,
      "ĠS": 362,
      "ĠA": 363,
      "Ġse": 364,
      "ir": 365,
      "Ġmovie": 366,
      "ĠThe": 367,
      "ro": 368,
      "Ġyou": 369,
      "Ġha": 370,
      ".<": 371,
      "ri": 372,
      "ĠB": 373,
      "her": 374,
      "ur": 375,
      "Ġli": 376,
      "Ġbut": 377,
      "ĠM": 378,
      "ra": 379,
      "Ġwe": 380,
      "Ġnot": 381,
      "ally": 382,
      "ill": 383,
      "'t": 384,
      "Ġ(": 385,
      "ter": 386,
      "ĠC": 387,
      "Ġ\"": 388,
      "ĠH": 389,
      "ck": 390,
      "Ġare": 391,
      "Ġsh": 392,
      "ome": 393,
      "Ġhis": 394,
      "Ġch": 395,
      "pe": 396,
      "ers": 397,
      "ould": 398,
      "ĠW": 399,
      "Ġat": 400,
      "ul": 401,
      "ght": 402,
      "Ġhave": 403,
      "ust": 404,
      "if": 405,
      "un": 406,
      "Ġj": 407,
      "em": 408,
      "ĠD": 409,
      "..": 410,
      "Ġsu": 411,
      "Ġsc": 412,
      "Ġfr": 413,
      "out": 414,
      "Ġact": 415,
      "ain": 416,
      "Ġdo": 417,
      "ble": 418,
      "ess": 419,
      "Ġex": 420,
      "Ġwho": 421,
      "Ġone": 422,
      "Ġcom": 423,
      "Ġk": 424,
      "Ġso": 425,
      "el": 426,
      "Ġpl": 427,
      "very": 428,
      "ood": 429,
      "Ġall": 430,
      "act": 431,
      "ant": 432,
      "Ġab": 433,
      "art": 434,
      "ak": 435,
      "pp": 436,
      "ies": 437,
      "Ġby": 438,
      "us": 439,
      "ol": 440,
      "ag": 441,
      "Ġal": 442,
      "Ġv": 443,
      "est": 444,
      "ous": 445,
      "op": 446,
      "ĠP": 447,
      "th": 448,
      "ist": 449,
      "Ġde": 450,
      "and": 451,
      "Ġthey": 452,
      "ĠL": 453,
      "Ġwor": 454,
      "Ġne": 455,
      "ast": 456,
      "Ġfrom": 457,
      "Ġout": 458,
      "one": 459,
      "ven": 460,
      "Ġlike": 461,
      "Ġsome": 462,
      "ĠF": 463,
      "Ġr": 464,
      "ĠR": 465,
      "Ġwhe": 466,
      "Ġcon": 467,
      "qu": 468,
      "Ġor": 469,
      "ation": 470,
      "red": 471,
      "ĠJ": 472,
      "Ġint": 473,
      "Ġher": 474,
      "um": 475,
      "ĠG": 476,
      "ough": 477,
      "fe": 478,
      "au": 479,
      "ate": 480,
      "ĠIt": 481,
      "Ġme": 482,
      "Ġjust": 483,
      "Ġhas": 484,
      "Ġabout": 485,
      "ind": 486,
      "res": 487,
      "ive": 488,
      "ich": 489,
      "os": 490,
      "ory": 491,
      "ard": 492,
      "Ġchar": 493,
      "ack": 494,
      "Ġpro": 495,
      "ĠN": 496,
      "Ġcan": 497,
      "ort": 498,
      "Ġtim": 499,
      "ig": 500,
      "pt": 501,
      "Ġun": 502,
      "ake": 503,
      "his": 504,
      "ĠE": 505,
      "ire": 506,
      "ud": 507,
      "ook": 508,
      "The": 509,
      "Ġle": 510,
      "ight": 511,
      "Ġgood": 512,
      "reat": 513,
      "Ġcharact": 514,
      "Ġany": 515,
      "ong": 516,
      "Ġwat": 517,
      "Ġman": 518,
      "Ġup": 519,
      "Ġmore": 520,
      "ĠO": 521,
      "Ġget": 522,
      "Ġlo": 523,
      "Ġtr": 524,
      "Ġgo": 525,
      "Ġno": 526,
      "Ġwould": 527,
      "Ġvery": 528,
      "ity": 529,
      "Ġfe": 530,
      "Ġsee": 531,
      "ther": 532,
      "Ġwhat": 533,
      "ound": 534,
      "Ġthere": 535,
      "Ġmy": 536,
      "ite": 537,
      "Ġstory": 538,
      "ge": 539,
      "ame": 540,
      "nt": 541,
      "Ġbec": 542,
      "ide": 543,
      "able": 544,
      "Ġtime": 545,
      "od": 546,
      "Ġshe": 547,
      "hing": 548,
      "Ġ1": 549,
      "Ġwhen": 550,
      "Ġ-": 551,
      "Ġen": 552,
      "ell": 553,
      "ore": 554,
      "Ġreally": 555,
      "Ġhad": 556,
      "ĠK": 557,
      "Ġwere": 558,
      "Ġscen": 559,
      "Ġwatch": 560,
      "ure": 561,
      "Ġonly": 562,
      "Ġtheir": 563,
      "Ġshow": 564,
      "Ġeven": 565,
      "Ġhim": 566,
      "ious": 567,
      "ab": 568,
      "oy": 569,
      "itt": 570,
      "Ġwhich": 571,
      "Ġother": 572,
      "Ġif": 573,
      "ick": 574,
      "ink": 575,
      "so": 576,
      "ial": 577,
      "Ġper": 578,
      "te": 579,
      "pl": 580,
      "our": 581,
      "Ġthan": 582,
      "ars": 583,
      "man": 584,
      "Ġcl": 585,
      "ment": 586,
      "Ġthem": 587,
      "ond": 588,
      "og": 589,
      "ine": 590,
      "Ġdoes": 591,
      "ays": 592,
      "Ġend": 593,
      "are": 594,
      "ade": 595,
      "Ġkn": 596,
      "ap": 597,
      "Ġdid": 598,
      "uch": 599,
      "ac": 600,
      "ves": 601,
      "Ġpe": 602,
      "ause": 603,
      "Ġbad": 604,
      "Ġqu": 605,
      "ue": 606,
      "ople": 607,
      "Ġgreat": 608,
      "Ġar": 609,
      "Ġim": 610,
      "irst": 611,
      "Ġover": 612,
      "Ġbet": 613,
      "ice": 614,
      "ple": 615,
      "Ġmuch": 616,
      "Ġlook": 617,
      "Ġwill": 618,
      "irect": 619,
      "Ġcould": 620,
      "Ġpo": 621,
      "...": 622,
      "ert": 623,
      "Ġbeen": 624,
      "ne": 625,
      "ence": 626,
      "Ġhow": 627,
      "Ġpeople": 628,
      "lf": 629,
      "ĠThis": 630,
      "Ġinto": 631,
      "int": 632,
      "Ġwell": 633,
      "ry": 634,
      "Ġmost": 635,
      "Ġthink": 636,
      "Ġro": 637,
      "Ġpre": 638,
      "Ġtw": 639,
      "for": 640,
      "ose": 641,
      "Ġad": 642,
      "other": 643,
      "Ġknow": 644,
      "ass": 645,
      "age": 646,
      "Ġbecause": 647,
      "Ġdis": 648,
      "Ġtoo": 649,
      "ful": 650,
      "Ġag": 651,
      "ors": 652,
      "Ġus": 653,
      "Ġmake": 654,
      "fter": 655,
      "per": 656,
      "Ġreal": 657,
      "Ġthing": 658,
      "av": 659,
      "Ġfirst": 660,
      "Ġmade": 661,
      "ff": 662,
      "Ġdirect": 663,
      "ile": 664,
      "Ġpart": 665,
      "Ġoff": 666,
      "Ġevery": 667,
      "hat": 668,
      "ull": 669,
      "Ġam": 670,
      "ish": 671,
      "Ġway": 672,
      "ny": 673,
      "aw": 674,
      "ated": 675,
      "Ġfun": 676,
      "Ġalso": 677,
      "ere": 678,
      "oll": 679,
      "ict": 680,
      "ary": 681,
      "Ġdon": 682,
      "ans": 683,
      "Ġmovies": 684,
      "akes": 685,
      "ical": 686,
      "ost": 687,
      "ty": 688,
      "gin": 689,
      "Ġwr": 690,
      "Ġits": 691,
      "ress": 692,
      "ep": 693,
      "own": 694,
      "Ġ'": 695,
      "Ġseem": 696,
      "Ġwork": 697,
      "Ġthr": 698,
      "Ġcharacter": 699,
      "Ġcharacters": 700,
      "iew": 701,
      "ĠCh": 702,
      "ace": 703,
      "Ġbl": 704,
      "ng": 705,
      "Ġsp": 706,
      "Ġgu": 707,
      "ance": 708,
      "ĠY": 709,
      "ually": 710,
      "cc": 711,
      "hed": 712,
      "ob": 713,
      "pect": 714,
      "ĠAnd": 715,
      "Ġfl": 716,
      "Ġplot": 717,
      "Ġplay": 718,
      "Ġye": 719,
      "ving": 720,
      "Ġte": 721,
      "Ġthen": 722,
      "Ġfilms": 723,
      "Ġwant": 724,
      "fect": 725,
      "Ġseen": 726,
      "Ġbeing": 727,
      "self": 728,
      "ĠBut": 729,
      "omet": 730,
      "Ġaw": 731,
      "iz": 732,
      "Ġser": 733,
      "Ġyour": 734,
      "ittle": 735,
      "ces": 736,
      "Ġsay": 737,
      "Ġtwo": 738,
      "),": 739,
      "Ġafter": 740,
      ").": 741,
      "get": 742,
      "urn": 743,
      "ĠV": 744,
      "ang": 745,
      "Ġnever": 746,
      "Ġlove": 747,
      "Ġacting": 748,
      "Ġent": 749,
      "This": 750,
      "ĠHe": 751,
      "Ġmany": 752,
      "Ġwhere": 753,
      "mer": 754,
      "ip": 755,
      "nder": 756,
      "Ġback": 757,
      "ens": 758,
      "Ġ<": 759,
      "ĠIn": 760,
      "ily": 761,
      "ved": 762,
      "Ġbr": 763,
      "Ġlittle": 764,
      "ather": 765,
      "ian": 766,
      "ber": 767,
      "Ġbest": 768,
      "Ġthrough": 769,
      "Ġrem": 770,
      "ark": 771,
      "Ġsomet": 772,
      "ci": 773,
      "Ġlife": 774,
      "Ġever": 775,
      "ild": 776,
      "vel": 777,
      "Ġhor": 778,
      "ach": 779,
      "we": 780,
      "ult": 781,
      "wn": 782,
      "Ġdes": 783,
      "Ġbetter": 784,
      "ions": 785,
      "ise": 786,
      "Ġfind": 787,
      "Ġrec": 788,
      "ĠSt": 789,
      "Ġperfor": 790,
      "ual": 791,
      "Ġshould": 792,
      "rap": 793,
      "be": 794,
      "ase": 795,
      "Ġsl": 796,
      "Ġspe": 797,
      "du": 798,
      "Ġscene": 799,
      "Ġcont": 800,
      "!!": 801,
      "vers": 802,
      "hy": 803,
      "ru": 804,
      "Ġagain": 805,
      "aking": 806,
      "thing": 807,
      "ertain": 808,
      "ought": 809,
      "Ġpr": 810,
      "less": 811,
      "Ġfeel": 812,
      "Ġscenes": 813,
      "'ve": 814,
      "ia": 815,
      "lie": 816,
      "Ġmin": 817,
      "ĠU": 818,
      "Ġri": 819,
      "Ġ19": 820,
      "Ġhere": 821,
      "Ġstill": 822,
      "ents": 823,
      "erest": 824,
      "fore": 825,
      "Ġatt": 826,
      "Ġ2": 827,
      "ever": 828,
      "Ġgr": 829,
      "Ġunder": 830,
      "ting": 831,
      "ably": 832,
      "Ġinterest": 833,
      "me": 834,
      "Ġi": 835,
      "'m": 836,
      "Ġsomething": 837,
      "ĠThere": 838,
      "ason": 839,
      "iend": 840,
      "ning": 841,
      "augh": 842,
      "Ġinc": 843,
      "Ġsuch": 844,
      "igh": 845,
      "Ġhapp": 846,
      "Ġold": 847,
      "ating": 848,
      "ren": 849,
      "ree": 850,
      "ense": 851,
      "Ġkill": 852,
      "Ġimp": 853,
      "les": 854,
      "arly": 855,
      "Ġperforman": 856,
      "Ġcast": 857,
      "Ġfam": 858,
      "alk": 859,
      "ail": 860,
      "Ġmay": 861,
      "Ġap": 862,
      "Ġpoint": 863,
      "reen": 864,
      "ater": 865,
      "ave": 866,
      "Ġthese": 867,
      "ath": 868,
      "Ġlot": 869,
      "the": 870,
      "ations": 871,
      "Ġgi": 872,
      "Ġdec": 873,
      "Ġactors": 874,
      "Ġmus": 875,
      "Ġcr": 876,
      "Ġyears": 877,
      "Ġwatching": 878,
      "Ġdoesn": 879,
      "Ġhum": 880,
      "Ġsur": 881,
      "Ġsim": 882,
      "ying": 883,
      "Ġgen": 884,
      "up": 885,
      "ect": 886,
      "li": 887,
      "Ġres": 888,
      "Ġra": 889,
      "joy": 890,
      "Ġthose": 891,
      "Ġgir": 892,
      "Ġche": 893,
      "Ġwom": 894,
      "Ġset": 895,
      "Ġstart": 896,
      "oth": 897,
      "Ġmakes": 898,
      "ock": 899,
      "ror": 900,
      "Ġfunny": 901,
      "Ġcou": 902,
      "Ġenjoy": 903,
      "ĠAl": 904,
      "Ġfact": 905,
      "Ġbelie": 906,
      "iss": 907,
      "Ġob": 908,
      "Ġcomp": 909,
      "Ġview": 910,
      "Ġguy": 911,
      "Ġbefore": 912,
      "Ġdidn": 913,
      "Ġgot": 914,
      "old": 915,
      "Ġev": 916,
      "oc": 917,
      "Ġfew": 918,
      "ute": 919,
      "iv": 920,
      "ffect": 921,
      "**": 922,
      "Ġfin": 923,
      "Ġdown": 924,
      "edy": 925,
      "Ġactually": 926,
      "rigin": 927,
      "Ġgoing": 928,
      "oss": 929,
      "der": 930,
      "Ġsame": 931,
      "ĠIf": 932,
      "Ġlong": 933,
      "Ġnow": 934,
      "Ġwhy": 935,
      "Ġthough": 936,
      "erson": 937,
      "az": 938,
      "Ġorigin": 939,
      "Ġem": 940,
      "Ġbig": 941,
      "Ġpret": 942,
      "Ġsupp": 943,
      "ale": 944,
      "Ġyoung": 945,
      "Ġwhile": 946,
      "Ġtra": 947,
      "Ġke": 948,
      "ĠJo": 949,
      "Ġnothing": 950,
      "Ġsub": 951,
      "Ġturn": 952,
      "hen": 953,
      "ript": 954,
      "Ġown": 955,
      "Ġbit": 956,
      "ub": 957,
      "ience": 958,
      "'re": 959,
      "ool": 960,
      "Ġtri": 961,
      "ft": 962,
      "ible": 963,
      "Ġdif": 964,
      "Ġter": 965,
      "Ġdirector": 966,
      "--": 967,
      "Ġprodu": 968,
      "ction": 969,
      "Ġexce": 970,
      "ons": 971,
      "Ġthought": 972,
      "ram": 973,
      "Ġcomple": 974,
      "Ġgirl": 975,
      "Ġnew": 976,
      "Ġthings": 977,
      "ince": 978,
      "Ġanother": 979,
      "Ġapp": 980,
      "Ġinv": 981,
      "cial": 982,
      "Ġsm": 983,
      "iting": 984,
      "aut": 985,
      "Ġright": 986,
      "ign": 987,
      "ib": 988,
      "Ġrel": 989,
      "Ġquite": 990,
      "Ġneed": 991,
      "onder": 992,
      "Ġoriginal": 993,
      "ically": 994,
      "Ġseems": 995,
      "Ġenough": 996,
      "Ġaround": 997,
      "rent": 998,
      "Ġpretty": 999,
      "Ġeffect": 1000,
      "ways": 1001,
      "arr": 1002,
      "ran": 1003,
      "Ġscript": 1004,
      "Ġscreen": 1005,
      "Ġhard": 1006,
      "Ġappe": 1007,
      "Ġtake": 1008,
      "air": 1009,
      "ings": 1010,
      "ew": 1011,
      "ched": 1012,
      "Ġkind": 1013,
      "00": 1014,
      "ately": 1015,
      "meric": 1016,
      "Ġworld": 1017,
      "Ġkid": 1018,
      "ween": 1019,
      "Ġgive": 1020,
      "Ġ&": 1021,
      "Ġacc": 1022,
      "ness": 1023,
      "ead": 1024,
      "Ġfriend": 1025,
      "Ġins": 1026,
      "pr": 1027,
      "app": 1028,
      "ster": 1029,
      "most": 1030,
      "ĠShe": 1031,
      "Ġmom": 1032,
      "Ġfar": 1033,
      "Ġhigh": 1034,
      "vious": 1035,
      "Ġmust": 1036,
      "Ġbetween": 1037,
      "utes": 1038,
      "rill": 1039,
      "Ġes": 1040,
      "ward": 1041,
      "Ġlaugh": 1042,
      "hes": 1043,
      "Ġsec": 1044,
      "Ġhel": 1045,
      "Ġreason": 1046,
      "Ġleast": 1047,
      "Ġgets": 1048,
      "Ġchild": 1049,
      "Ġtimes": 1050,
      "Ġtell": 1051,
      "Ġalways": 1052,
      "icul": 1053,
      "Ġop": 1054,
      "inem": 1055,
      "Ġput": 1056,
      "Ġrole": 1057,
      "ĠBr": 1058,
      "Ġseries": 1059,
      "Ġwonder": 1060,
      "Ġperson": 1061,
      "ĠAs": 1062,
      "ody": 1063,
      "ife": 1064,
      "aid": 1065,
      "ced": 1066,
      "ouse": 1067,
      "ention": 1068,
      "Ġep": 1069,
      "ord": 1070,
      "Ġbu": 1071,
      "Ġhorror": 1072,
      "Ġread": 1073,
      "ash": 1074,
      "Ġmain": 1075,
      "Ġsex": 1076,
      "Ġaction": 1077,
      "Ġwhole": 1078,
      "Ġmusic": 1079,
      "here": 1080,
      "Ġinteresting": 1081,
      "Ġcome": 1082,
      "ĠYou": 1083,
      "Ġisn": 1084,
      "oot": 1085,
      "Ġsaw": 1086,
      "Ġexpect": 1087,
      "ĠAmeric": 1088,
      "xt": 1089,
      "Ġdone": 1090,
      "Ġwithout": 1091,
      "arn": 1092,
      "ased": 1093,
      "its": 1094,
      "ks": 1095,
      "Ġcam": 1096,
      "Ġcomedy": 1097,
      "Ġhand": 1098,
      "Ġcons": 1099,
      "ĠThey": 1100,
      "Ġide": 1101,
      "ully": 1102,
      "ĠHow": 1103,
      "Ġminutes": 1104,
      "Ġfamily": 1105,
      "Ġbeaut": 1106,
      "Ġrev": 1107,
      "Ġshot": 1108,
      "Ġlead": 1109,
      "\",": 1110,
      "Ġboth": 1111,
      "Ġcomplete": 1112,
      "ines": 1113,
      "Ġperformance": 1114,
      "ĠSh": 1115,
      "Ġclass": 1116,
      "Ġcour": 1117,
      "bably": 1118,
      "rible": 1119,
      "Ġhelp": 1120,
      "Ġdiffe": 1121,
      "Ġalmost": 1122,
      "Ġmight": 1123,
      "'ll": 1124,
      "uring": 1125,
      "de": 1126,
      "Ġsound": 1127,
      "Ġbook": 1128,
      "hn": 1129,
      "Ġcinem": 1130,
      "Ġlast": 1131,
      "Ġentertain": 1132,
      "Ġinst": 1133,
      "Ġbegin": 1134,
      "Ġworth": 1135,
      "Ġexpl": 1136,
      "Ġaud": 1137,
      "Ġanything": 1138,
      "Ġcare": 1139,
      "stand": 1140,
      "gg": 1141,
      "Ġart": 1142,
      "son": 1143,
      "oney": 1144,
      "It": 1145,
      "ism": 1146,
      "cially": 1147,
      "ĠWh": 1148,
      "\".": 1149,
      "Ġ3": 1150,
      "Ġco": 1151,
      "ime": 1152,
      "Ġcle": 1153,
      "ov": 1154,
      "rist": 1155,
      "though": 1156,
      "atch": 1157,
      "ner": 1158,
      "ane": 1159,
      "Ġel": 1160,
      "ograp": 1161,
      "ative": 1162,
      "ition": 1163,
      "era": 1164,
      "Ġrather": 1165,
      "ĠTV": 1166,
      "Ġaway": 1167,
      "Ġsince": 1168,
      "Ġfound": 1169,
      "ures": 1170,
      "isod": 1171,
      "Ġsequ": 1172,
      "Ġprobably": 1173,
      "ither": 1174,
      ".\"": 1175,
      "ros": 1176,
      "Ġext": 1177,
      "pecially": 1178,
      "Ġabs": 1179,
      "istic": 1180,
      "Ġvers": 1181,
      "ĠAn": 1182,
      "Ġcourse": 1183,
      "Ġrun": 1184,
      "als": 1185,
      "osed": 1186,
      "ret": 1187,
      "Ġwoman": 1188,
      "oint": 1189,
      "ialog": 1190,
      "ER": 1191,
      "Ġsure": 1192,
      "ee": 1193,
      "Ġcall": 1194,
      "Ġbo": 1195,
      "led": 1196,
      "ady": 1197,
      "ten": 1198,
      "Ġlik": 1199,
      "Ġepisod": 1200,
      "Ġmean": 1201,
      "mend": 1202,
      "ĠTh": 1203,
      "Ġcomes": 1204,
      "olly": 1205,
      "apt": 1206,
      "Ġdialog": 1207,
      "ok": 1208,
      "wh": 1209,
      "Ġcar": 1210,
      "Ġworst": 1211,
      "Ġhappen": 1212,
      "Ġour": 1213,
      "ject": 1214,
      "Ġmaking": 1215,
      "wood": 1216,
      "Ġplace": 1217,
      "Ġkeep": 1218,
      "Ġadd": 1219,
      "ĠThat": 1220,
      "Ġ10": 1221,
      "co": 1222,
      "Ġbelieve": 1223,
      "umb": 1224,
      "Ġdel": 1225,
      "ĠSo": 1226,
      "ream": 1227,
      "ments": 1228,
      "ph": 1229,
      "Ġlet": 1230,
      "Ġtrying": 1231,
      "aster": 1232,
      "Ġsense": 1233,
      "ont": 1234,
      "Ġjob": 1235,
      "ms": 1236,
      "ingly": 1237,
      "Ġpoor": 1238,
      "Ġpol": 1239,
      "Ġplayed": 1240,
      "ollow": 1241,
      "Ġmind": 1242,
      "Ġrest": 1243,
      "Ġless": 1244,
      "alf": 1245,
      "Ġmoney": 1246,
      "Ġdifferent": 1247,
      "Ġstand": 1248,
      "ex": 1249,
      "Ġanyone": 1250,
      "Ġday": 1251,
      "arent": 1252,
      "uck": 1253,
      "ĠWhat": 1254,
      "Ġbor": 1255,
      "ates": 1256,
      "ĠJohn": 1257,
      "ec": 1258,
      "VD": 1259,
      "ling": 1260,
      "ics": 1261,
      "ney": 1262,
      "fin": 1263,
      "sc": 1264,
      "'d": 1265,
      "Ġgoes": 1266,
      "Ġbeautif": 1267,
      "Ġshows": 1268,
      "Ġstr": 1269,
      "lud": 1270,
      "Ġpres": 1271,
      "Ġeach": 1272,
      "iece": 1273,
      "dd": 1274,
      "inc": 1275,
      "Ġending": 1276,
      "ah": 1277,
      "Ġwar": 1278,
      "Ġsurpr": 1279,
      "Ġproble": 1280,
      "ember": 1281,
      "iter": 1282,
      "land": 1283,
      "Ġfan": 1284,
      "ortun": 1285,
      "Ġshort": 1286,
      "Ġinter": 1287,
      "Ġty": 1288,
      "hip": 1289,
      "Ġwasn": 1290,
      "Ġlooks": 1291,
      "ope": 1292,
      "ray": 1293,
      "ality": 1294,
      "Ġsuper": 1295,
      "Ġac": 1296,
      "Ġcre": 1297,
      "empt": 1298,
      "ĠDVD": 1299,
      "Ġplays": 1300,
      "Ġdram": 1301,
      "ommend": 1302,
      "Ġboy": 1303,
      "Ġgl": 1304,
      "Ġwatched": 1305,
      "Ġport": 1306,
      "ĠWe": 1307,
      "Ġactor": 1308,
      "Ġtakes": 1309,
      "ĠTH": 1310,
      "Ġyet": 1311,
      "ĠNot": 1312,
      "ower": 1313,
      "Ġmiss": 1314,
      "Ġhalf": 1315,
      "Ġperfect": 1316,
      "ilar": 1317,
      "Ġsaid": 1318,
      "Ġlooking": 1319,
      "way": 1320,
      "Ġhead": 1321,
      "Ġhaving": 1322,
      "llent": 1323,
      "ists": 1324,
      "Ġfollow": 1325,
      "gether": 1326,
      "Ġrele": 1327,
      "Ġtogether": 1328,
      "ann": 1329,
      "10": 1330,
      "Ġunderstand": 1331,
      "Ġsecond": 1332,
      "Ġversion": 1333,
      "ident": 1334,
      "Ġanim": 1335,
      "Ġaudience": 1336,
      "Ġconf": 1337,
      "Ġreview": 1338,
      "Ġfather": 1339,
      "ames": 1340,
      "Ġobvious": 1341,
      "atter": 1342,
      "Ġentire": 1343,
      "Ġfall": 1344,
      "Ġrecommend": 1345,
      "ĠAll": 1346,
      "Ġposs": 1347,
      "Ġsomeone": 1348,
      "ollywood": 1349,
      "Ġsit": 1350,
      "ited": 1351,
      "Ġcreat": 1352,
      "Ġespecially": 1353,
      "Ġthree": 1354,
      "Ġelse": 1355,
      "Ġtrue": 1356,
      "Ġcertain": 1357,
      "Ġhimself": 1358,
      "Ġnight": 1359,
      "not": 1360,
      "sy": 1361,
      "omb": 1362,
      "ied": 1363,
      "Ġtalk": 1364,
      "ature": 1365,
      "Ġsing": 1366,
      "Ġed": 1367,
      "ues": 1368,
      "Ġimag": 1369,
      "Ġfav": 1370,
      "aps": 1371,
      "ĠBl": 1372,
      "Ġnice": 1373,
      "ted": 1374,
      "Ġhour": 1375,
      "Ġeffects": 1376,
      "Ġinvol": 1377,
      "Ġidea": 1378,
      "Ġdep": 1379,
      "atic": 1380,
      "ĠChrist": 1381,
      "Ġvis": 1382,
      "Ġdet": 1383,
      "Ġph": 1384,
      "Ġleft": 1385,
      "upid": 1386,
      "Ġwife": 1387,
      "Ġele": 1388,
      "ier": 1389,
      "io": 1390,
      "ply": 1391,
      "day": 1392,
      "ired": 1393,
      "Ġspecial": 1394,
      "ared": 1395,
      "Ġmon": 1396,
      "sp": 1397,
      "Ġlater": 1398,
      "cept": 1399,
      "ix": 1400,
      "uff": 1401,
      "ĠDe": 1402,
      "Ġexc": 1403,
      "ĠFor": 1404,
      "udget": 1405,
      "Ġuse": 1406,
      "ross": 1407,
      "Ġmur": 1408,
      "fully": 1409,
      "ĠAmerican": 1410,
      "Ġbeh": 1411,
      "Ġbeautiful": 1412,
      "but": 1413,
      "Ġexcellent": 1414,
      "Ġlow": 1415,
      "ĠMar": 1416,
      "ird": 1417,
      "Ġcame": 1418,
      "ional": 1419,
      "Ġcomm": 1420,
      "Ġlack": 1421,
      "Ġhist": 1422,
      "Ġhome": 1423,
      "Ġyear": 1424,
      "Ġexp": 1425,
      "Ġdist": 1426,
      "ĠSc": 1427,
      "Ġcompletely": 1428,
      "Ġfight": 1429,
      "ĠBe": 1430,
      "Ġduring": 1431,
      "Ġmem": 1432,
      "Ġseeing": 1433,
      "appoint": 1434,
      "Ġeverything": 1435,
      "ract": 1436,
      "like": 1437,
      "Ġeveryone": 1438,
      "olute": 1439,
      "Ġstupid": 1440,
      "ĠSte": 1441,
      "Ġass": 1442,
      "Ġsong": 1443,
      "yle": 1444,
      "Ġfriends": 1445,
      "ount": 1446,
      "ĠUn": 1447,
      "my": 1448,
      "Ġtot": 1449,
      "ĠZ": 1450,
      "Ġmar": 1451,
      "ains": 1452,
      "Ġunt": 1453,
      "Ġsk": 1454,
      "orn": 1455,
      "ides": 1456,
      "ĠCl": 1457,
      "Ġey": 1458,
      "ery": 1459,
      "Ġeither": 1460,
      "Ġdisappoint": 1461,
      "ĠRe": 1462,
      "chool": 1463,
      "Ġused": 1464,
      "Ġattempt": 1465,
      "Ġsimply": 1466,
      "Ġtal": 1467,
      "Ġdeath": 1468,
      "Ġdra": 1469,
      "ank": 1470,
      "tle": 1471,
      "ised": 1472,
      "Ġmen": 1473,
      "Ġonce": 1474,
      "ĠWhen": 1475,
      "Ġsupposed": 1476,
      "iol": 1477,
      "ork": 1478,
      "Ġtit": 1479,
      "Ġ4": 1480,
      "Ġeas": 1481,
      "Ġstar": 1482,
      "Ġgener": 1483,
      "Ġinclud": 1484,
      "Ġfail": 1485,
      "ĠRob": 1486,
      "Ġwrong": 1487,
      "....": 1488,
      "Ġtop": 1489,
      "ĠHollywood": 1490,
      "Ġexam": 1491,
      "ĠAr": 1492,
      "elt": 1493,
      "Ġstud": 1494,
      "ets": 1495,
      "Ġword": 1496,
      "Ġconc": 1497,
      "ĠSp": 1498,
      "Ġserious": 1499,
      "idd": 1500,
      "Ġcamera": 1501,
      "Ġmess": 1502,
      "Ġabsolute": 1503,
      "Ġopen": 1504,
      "Ġsy": 1505,
      "Ġhouse": 1506,
      "Ġexper": 1507,
      "itten": 1508,
      "Ġperformances": 1509,
      "ideo": 1510,
      "Ġkids": 1511,
      "Ġheart": 1512,
      "Ġdefin": 1513,
      "ider": 1514,
      "Ġhuman": 1515,
      "Ġcount": 1516,
      "ĠMy": 1517,
      "Ġrep": 1518,
      "Ġboring": 1519,
      "Ġcra": 1520,
      "ĠAt": 1521,
      "Ġtry": 1522,
      "Ġblack": 1523,
      "ins": 1524,
      "Ġpict": 1525,
      "Ġret": 1526,
      "Ġemot": 1527,
      "ĠHowever": 1528,
      "uth": 1529,
      "Ġmoments": 1530,
      "ove": 1531,
      "Ġsmall": 1532,
      "In": 1533,
      "com": 1534,
      "Ġgra": 1535,
      "Ġ--": 1536,
      "Ġsad": 1537,
      "oice": 1538,
      "Ġwon": 1539,
      "ug": 1540,
      "Ġcred": 1541,
      "Ġloc": 1542,
      "oon": 1543,
      "ĠÂ": 1544,
      "Ġwomen": 1545,
      "Ġpain": 1546,
      "Ġbecom": 1547,
      "reak": 1548,
      "ography": 1549,
      "uly": 1550,
      "Ġ7": 1551,
      "anc": 1552,
      "Ã©": 1553,
      "aring": 1554,
      "Ġuntil": 1555,
      "Ġwa": 1556,
      "ĠOne": 1557,
      "velop": 1558,
      "Ġgiven": 1559,
      "Ġlight": 1560,
      "Ġhope": 1561,
      "Ġple": 1562,
      "Ġawful": 1563,
      "ities": 1564,
      "med": 1565,
      "fic": 1566,
      "ike": 1567,
      "amp": 1568,
      "Ġportray": 1569,
      "itely": 1570,
      "Ġremember": 1571,
      "Ġrom": 1572,
      "gr": 1573,
      "ott": 1574,
      "ize": 1575,
      "Ġline": 1576,
      "orm": 1577,
      "Ġepisode": 1578,
      "play": 1579,
      "fortun": 1580,
      "Ġcop": 1581,
      "Ġconv": 1582,
      "Ġsort": 1583,
      "ences": 1584,
      "Ġparticul": 1585,
      "Ġpass": 1586,
      "Ġ8": 1587,
      "ories": 1588,
      "Ġadv": 1589,
      "Ġcouple": 1590,
      "iness": 1591,
      "Ġviol": 1592,
      "ility": 1593,
      "Ġclassic": 1594,
      "sel": 1595,
      "ler": 1596,
      "Ġflick": 1597,
      "Ġind": 1598,
      "Ġ5": 1599,
      "Ġalong": 1600,
      "ric": 1601,
      "Ġinstead": 1602,
      "iant": 1603,
      "que": 1604,
      "Ġtruly": 1605,
      "Ġhero": 1606,
      "Ġbas": 1607,
      "IN": 1608,
      "ĠLe": 1609,
      "ister": 1610,
      "Ġitself": 1611,
      "olog": 1612,
      "Ġimpress": 1613,
      "Ġslow": 1614,
      "Ġpiece": 1615,
      "ĠWill": 1616,
      "Ġproduction": 1617,
      "haps": 1618,
      "Ġnext": 1619,
      "ison": 1620,
      "Ġbudget": 1621,
      "ote": 1622,
      "Ġgives": 1623,
      "ton": 1624,
      "Ġterrible": 1625,
      "Ġname": 1626,
      ",\"": 1627,
      "Ġothers": 1628,
      "aj": 1629,
      "Ġschool": 1630,
      "Ġlive": 1631,
      "Ġfavor": 1632,
      "Ġamaz": 1633,
      "ĠWell": 1634,
      "ming": 1635,
      "Ġann": 1636,
      "Ġdead": 1637,
      "Ġfull": 1638,
      "Ġfelt": 1639,
      "Ġcouldn": 1640,
      "reme": 1641,
      "Ġdoing": 1642,
      "Ġoften": 1643,
      "There": 1644,
      "ĠNo": 1645,
      "Ġguess": 1646,
      "ax": 1647,
      "Ġ9": 1648,
      "Ġdialogue": 1649,
      "Ġwonderful": 1650,
      "Ġcor": 1651,
      "ented": 1652,
      "ently": 1653,
      "Ġexcept": 1654,
      "ibly": 1655,
      "Ġdevelop": 1656,
      "Ġfant": 1657,
      "Ġhumor": 1658,
      "Ġvideo": 1659,
      "Ġdri": 1660,
      "Ġz": 1661,
      "ized": 1662,
      "Ġplaying": 1663,
      "iam": 1664,
      "tern": 1665,
      "vis": 1666,
      "Ġquest": 1667,
      "ĠMr": 1668,
      "ps": 1669,
      "Ġclose": 1670,
      "ĠOn": 1671,
      "Ġliked": 1672,
      "Ġstars": 1673,
      "line": 1674,
      "Ġreg": 1675,
      "If": 1676,
      "und": 1677,
      "Ġwaste": 1678,
      "Ġbecome": 1679,
      "Ġhowever": 1680,
      "Ġlines": 1681,
      "Ġagainst": 1682,
      "ows": 1683,
      "Ġearly": 1684,
      "body": 1685,
      "Ġcut": 1686,
      "Ġentertaining": 1687,
      "Ġmother": 1688,
      "ony": 1689,
      "imes": 1690,
      "ĠSe": 1691,
      "ael": 1692,
      "Ġstyle": 1693,
      "ger": 1694,
      "riend": 1695,
      "unch": 1696,
      "Ġworse": 1697,
      "Ġrid": 1698,
      "Ġactress": 1699,
      "ĠTHE": 1700,
      "Ġwent": 1701,
      "Ġabsolutely": 1702,
      "ular": 1703,
      "sh": 1704,
      "Ġside": 1705,
      "Ġgetting": 1706,
      "Ġcase": 1707,
      "Ġface": 1708,
      "ĠMan": 1709,
      "ĠDon": 1710,
      "Ġchildren": 1711,
      "Ġbrill": 1712,
      "Ġproblem": 1713,
      "Ġcoll": 1714,
      "ley": 1715,
      "Ġform": 1716,
      "Ġtitle": 1717,
      "Ġmention": 1718,
      "Ġsucc": 1719,
      "ts": 1720,
      "ined": 1721,
      "by": 1722,
      "Ġexample": 1723,
      "right": 1724,
      "ific": 1725,
      "ured": 1726,
      "Ġbrother": 1727,
      "aughter": 1728,
      "lish": 1729,
      "Ġmis": 1730,
      "Ġref": 1731,
      "ĠNew": 1732,
      "used": 1733,
      "Ġsomew": 1734,
      "Ġmaybe": 1735,
      "ĠEven": 1736,
      "rew": 1737,
      "ready": 1738,
      "illy": 1739,
      "Ġsupport": 1740,
      "ided": 1741,
      "ĠHis": 1742,
      "Ġdark": 1743,
      "Ġpower": 1744,
      "ange": 1745,
      "selves": 1746,
      "Ġstrong": 1747,
      "Ġextreme": 1748,
      "ĠCar": 1749,
      "Ġpred": 1750,
      "ĠJack": 1751,
      "Ġbecomes": 1752,
      "ichael": 1753,
      "Ġtrans": 1754,
      "Ġwritten": 1755,
      "Ġwanted": 1756,
      "Ġdefinitely": 1757,
      "pite": 1758,
      "Ġalready": 1759,
      "fortunately": 1760,
      "ĠEng": 1761,
      "Ġrelations": 1762,
      "oub": 1763,
      "yn": 1764,
      "Ġsw": 1765,
      "ument": 1766,
      "Ġ.": 1767,
      "Ġlives": 1768,
      "atur": 1769,
      "Ġpast": 1770,
      "Ġthrill": 1771,
      "Ġsuccess": 1772,
      "rom": 1773,
      "Ġbeginning": 1774,
      "enn": 1775,
      "ĠDav": 1776,
      "chn": 1777,
      "Ġlost": 1778,
      "Ġadm": 1779,
      "ĠÂĸ": 1780,
      "vable": 1781,
      "Ġcertainly": 1782,
      "itch": 1783,
      "Ġpop": 1784,
      "Ġfans": 1785,
      "Ġrent": 1786,
      "cess": 1787,
      "Ġfine": 1788,
      "Ġbrilliant": 1789,
      "osp": 1790,
      "Ġself": 1791,
      "aken": 1792,
      "sych": 1793,
      "ĠIs": 1794,
      "het": 1795,
      "Ġmag": 1796,
      "Ġsever": 1797,
      "orge": 1798,
      "Ġwants": 1799,
      "Ġdrama": 1800,
      "Ġtown": 1801,
      "Ġcinema": 1802,
      "Ġbehind": 1803,
      "Ġannoy": 1804,
      "ried": 1805,
      "oke": 1806,
      "Ġblood": 1807,
      "aving": 1808,
      "Ġnum": 1809,
      "Ġstuff": 1810,
      "pped": 1811,
      "Ġseveral": 1812,
      "Ġnovel": 1813,
      "Ġpicture": 1814,
      "Ġcol": 1815,
      "aul": 1816,
      "Ġmaster": 1817,
      "Ġet": 1818,
      "Ġlist": 1819,
      "Ġrelationship": 1820,
      "Ġalthough": 1821,
      "Ġgenre": 1822,
      "Ġhistory": 1823,
      "Ġmatter": 1824,
      "Ġdirection": 1825,
      "Ġturns": 1826,
      "Ġwalk": 1827,
      "unk": 1828,
      "Ġappear": 1829,
      "oid": 1830,
      "ief": 1831,
      "Ġloved": 1832,
      "Ġmor": 1833,
      "Ġwriting": 1834,
      "Ġseemed": 1835,
      "Ġtotally": 1836,
      "Ġocc": 1837,
      "ages": 1838,
      "Ġtries": 1839,
      "to": 1840,
      "Ġav": 1841,
      "Ġdem": 1842,
      "!<": 1843,
      "Ġpur": 1844,
      "Ġvill": 1845,
      "Ġgame": 1846,
      "ĠTo": 1847,
      "Ġguys": 1848,
      "Ġtou": 1849,
      "itive": 1850,
      "gu": 1851,
      "ik": 1852,
      "Ġson": 1853,
      "ĠSome": 1854,
      "Ġval": 1855,
      "oil": 1856,
      "Ġquality": 1857,
      "Ġpar": 1858,
      "ĠMc": 1859,
      "Ġsat": 1860,
      "Ġviewer": 1861,
      "uc": 1862,
      "Ġeff": 1863,
      "ern": 1864,
      "uss": 1865,
      "Ġdeser": 1866,
      "Ġenjoyed": 1867,
      "Ġstarts": 1868,
      "use": 1869,
      "ĠFran": 1870,
      "rop": 1871,
      "amed": 1872,
      "Ġthemselves": 1873,
      "OT": 1874,
      "Ġcalled": 1875,
      "Ġmoment": 1876,
      "ination": 1877,
      "Ġbra": 1878,
      "ey": 1879,
      "Ġcent": 1880,
      "Ġworks": 1881,
      "Ġfem": 1882,
      "Ġprov": 1883,
      "Ġfair": 1884,
      "ape": 1885,
      "Ġevil": 1886,
      "Ġfinal": 1887,
      "Ġlearn": 1888,
      "Ġ,": 1889,
      "Ġgave": 1890,
      "iculous": 1891,
      "ung": 1892,
      "Ġmusical": 1893,
      "oup": 1894,
      "Ġfeat": 1895,
      "Ġdr": 1896,
      "Ġshoot": 1897,
      "Ġexact": 1898,
      "Ġthroughout": 1899,
      "Ġable": 1900,
      "arth": 1901,
      "As": 1902,
      "Ġfig": 1903,
      "ox": 1904,
      "ished": 1905,
      "Ġmyster": 1906,
      "Ġkiller": 1907,
      "Ġmed": 1908,
      "Ġdeal": 1909,
      "Ġbased": 1910,
      ").<": 1911,
      "ches": 1912,
      "ĠMichael": 1913,
      "Ġcomment": 1914,
      "Ġdoc": 1915,
      "Ġhon": 1916,
      "range": 1917,
      "ese": 1918,
      "akers": 1919,
      "Ġlevel": 1920,
      "Ġstra": 1921,
      "Ġpsych": 1922,
      "ĠChar": 1923,
      "ĠBrit": 1924,
      "Ġfinally": 1925,
      "Ġcapt": 1926,
      "ĠThen": 1927,
      "Ġcontin": 1928,
      "Ġtoday": 1929,
      "Ġetc": 1930,
      "Ġdaughter": 1931,
      "Ġtyp": 1932,
      "Ġparts": 1933,
      "Ġamazing": 1934,
      "Ġsitu": 1935,
      ".)": 1936,
      "okes": 1937,
      "ĠAlso": 1938,
      "Ġcult": 1939,
      "Ġprom": 1940,
      "Ġfoot": 1941,
      "ump": 1942,
      "ene": 1943,
      "Ġimport": 1944,
      "ĠDan": 1945,
      "using": 1946,
      "uge": 1947,
      "Ġstop": 1948,
      "Ġhappens": 1949,
      "Ġconsider": 1950,
      "??": 1951,
      "Ġintell": 1952,
      "ĠAfter": 1953,
      "astic": 1954,
      "Ġhorrible": 1955,
      "ĠWith": 1956,
      "Ġroles": 1957,
      "rib": 1958,
      "aves": 1959,
      "Ġconst": 1960,
      "off": 1961,
      "Ġstories": 1962,
      "gs": 1963,
      "Ġridiculous": 1964,
      "Ġir": 1965,
      "arb": 1966,
      "Ġdecent": 1967,
      "Ġcrit": 1968,
      "Ġdays": 1969,
      "Ġthinking": 1970,
      "Ġvoice": 1971,
      "Ġcost": 1972,
      "ards": 1973,
      "lt": 1974,
      "Ġlate": 1975,
      "Ġheard": 1976,
      "Ġinvolved": 1977,
      "Ġask": 1978,
      "ude": 1979,
      "Ġincred": 1980,
      "ovie": 1981,
      "Ġopp": 1982,
      "Ġeffort": 1983,
      "Ġdream": 1984,
      "ĠHer": 1985,
      "cy": 1986,
      "Ġinf": 1987,
      "Ġsusp": 1988,
      "Ġdeli": 1989,
      "ajor": 1990,
      "AN": 1991,
      "na": 1992,
      "Ġweak": 1993,
      "Ġstru": 1994,
      "Ġsays": 1995,
      "rodu": 1996,
      "band": 1997,
      "Ġfavorite": 1998,
      "ĠOf": 1999,
      "Ġago": 2000,
      "Ġfeeling": 2001,
      "Ġsoon": 2002,
      "els": 2003,
      "RE": 2004,
      "Ġbat": 2005,
      "antly": 2006,
      "Ġpredict": 2007,
      "Ġnon": 2008,
      "urb": 2009,
      "ient": 2010,
      "Ġbus": 2011,
      "ior": 2012,
      "ĠGe": 2013,
      "ives": 2014,
      "Ġwhite": 2015,
      "Ġmurder": 2016,
      "Ġpick": 2017,
      "ering": 2018,
      "Ġbreak": 2019,
      "Ġmyself": 2020,
      "Ġchang": 2021,
      "Ġbring": 2022,
      "dy": 2023,
      "ique": 2024,
      "ters": 2025,
      "ĠGr": 2026,
      "Ġtechn": 2027,
      "Ġcinemat": 2028,
      "Ġextremely": 2029,
      "usband": 2030,
      "But": 2031,
      "Ġkilled": 2032,
      "19": 2033,
      "Ġgirls": 2034,
      "Ġhappened": 2035,
      "Ġwin": 2036,
      "Ġgroup": 2037,
      "Ġexperience": 2038,
      "What": 2039,
      "yp": 2040,
      "Ġtook": 2041,
      "ising": 2042,
      "Ġroom": 2043,
      "ST": 2044,
      "Ġcoming": 2045,
      "LL": 2046,
      "Ġhit": 2047,
      "Ġpos": 2048,
      "ots": 2049,
      "ution": 2050,
      "antic": 2051,
      "how": 2052,
      "Ġfore": 2053,
      "Ġcannot": 2054,
      "urt": 2055,
      "Ġswe": 2056,
      "rest": 2057,
      "apan": 2058,
      "Ġcheap": 2059,
      "Ġdirected": 2060,
      "Ġtele": 2061,
      "ĠWhile": 2062,
      "Ġopin": 2063,
      "vision": 2064,
      "owing": 2065,
      "Ġchance": 2066,
      "ĠGod": 2067,
      "Ġcrap": 2068,
      "Ġhold": 2069,
      "Ġhilar": 2070,
      "Ġpat": 2071,
      "Ġtold": 2072,
      "Ġsimple": 2073,
      "Ġeyes": 2074,
      "ĠRobert": 2075,
      "ians": 2076,
      "Ġsle": 2077,
      "Ġteen": 2078,
      "side": 2079,
      "ino": 2080,
      "Ġsn": 2081,
      "Ġshock": 2082,
      "Ġfut": 2083,
      "Ġprof": 2084,
      "aced": 2085,
      "Ġresult": 2086,
      "AT": 2087,
      "ĠEvery": 2088,
      "Ġhusband": 2089,
      "Ġste": 2090,
      "wards": 2091,
      "And": 2092,
      "Ġfoc": 2093,
      "ĠHar": 2094,
      "ational": 2095,
      "Ġhuge": 2096,
      "ered": 2097,
      "Ġstre": 2098,
      "...<": 2099,
      "ĠJames": 2100,
      "Ġnumber": 2101,
      "Ġmot": 2102,
      "Ġstay": 2103,
      "Ġevent": 2104,
      "Ġtype": 2105,
      "Ġobviously": 2106,
      "Ġphot": 2107,
      "ma": 2108,
      "Ġmajor": 2109,
      "gan": 2110,
      "Ġage": 2111,
      "Ġesc": 2112,
      "Ġcountry": 2113,
      "erman": 2114,
      "ĠPe": 2115,
      "Ġcomed": 2116,
      "read": 2117,
      "Ġquick": 2118,
      "ĠPl": 2119,
      "Ġannoying": 2120,
      "Ġill": 2121,
      "ĠQ": 2122,
      "Ġviolence": 2123,
      "ky": 2124,
      "Ġdocument": 2125,
      "Ġsimilar": 2126,
      "Ġmove": 2127,
      "pping": 2128,
      "ĠMay": 2129,
      "lo": 2130,
      "mp": 2131,
      "Ġscore": 2132,
      "ĠPet": 2133,
      "Ġshown": 2134,
      "ĠPaul": 2135,
      "Ġperhaps": 2136,
      "iddle": 2137,
      "ĠEnglish": 2138,
      "Ġexactly": 2139,
      "Ġpolit": 2140,
      "ĠEd": 2141,
      "ĠOsc": 2142,
      "Ġmet": 2143,
      "iet": 2144,
      "Ġfinds": 2145,
      "Ġleave": 2146,
      "ĠInd": 2147,
      "any": 2148,
      "outh": 2149,
      "Ġapparent": 2150,
      "Ġhighly": 2151,
      "Ġdest": 2152,
      "aged": 2153,
      "ĠOr": 2154,
      "ances": 2155,
      "ĠJapan": 2156,
      "aces": 2157,
      "Ġstrange": 2158,
      "ris": 2159,
      "Ġcat": 2160,
      "Ġwouldn": 2161,
      "Ġstarted": 2162,
      "ys": 2163,
      "nds": 2164,
      "Ġunc": 2165,
      "Ġends": 2166,
      "ĠWar": 2167,
      "Ġhilarious": 2168,
      "****": 2169,
      "Ġseason": 2170,
      "Ġdesc": 2171,
      "rence": 2172,
      "Ġcareer": 2173,
      "ĠJust": 2174,
      "Ġ6": 2175,
      "Ġpull": 2176,
      "Ġreleased": 2177,
      "Ġhours": 2178,
      "bel": 2179,
      "Ġtaken": 2180,
      "Ġjokes": 2181,
      "mb": 2182,
      "rack": 2183,
      "ustr": 2184,
      "Ġbody": 2185,
      "Ġdoub": 2186,
      "Ġvar": 2187,
      "Ġinde": 2188,
      "ĠKe": 2189,
      "Ġsubject": 2190,
      "ones": 2191,
      "Ġones": 2192,
      "iety": 2193,
      "Ġacross": 2194,
      "Ġopinion": 2195,
      "zy": 2196,
      "ĠWhy": 2197,
      "Ġalone": 2198,
      "rit": 2199,
      "Ġlooked": 2200,
      "aim": 2201,
      "orth": 2202,
      "ĠNow": 2203,
      "Ġdisco": 2204,
      "ĠWilliam": 2205,
      "Ġ200": 2206,
      "reci": 2207,
      "Ġfour": 2208,
      "enty": 2209,
      "Ġforget": 2210,
      "Ġwriter": 2211,
      "ĠRich": 2212,
      "anger": 2213,
      "Ġsomewhat": 2214,
      "Ġsaying": 2215,
      "itting": 2216,
      "Ġusual": 2217,
      "Ġtreat": 2218,
      "ching": 2219,
      "Ġknown": 2220,
      "Ġrating": 2221,
      "!\"": 2222,
      "light": 2223,
      "Ġfa": 2224,
      "Ġparent": 2225,
      "Ġfill": 2226,
      "ili": 2227,
      "Ġang": 2228,
      "Ġtalent": 2229,
      "mosp": 2230,
      "Ġsongs": 2231,
      "lic": 2232,
      "Ġinn": 2233,
      "ement": 2234,
      "Ġsister": 2235,
      "Ġlar": 2236,
      "Ġgun": 2237,
      "Ġchange": 2238,
      "Ġcontro": 2239,
      "Ġproduc": 2240,
      "Ġpolice": 2241,
      "Ġwhose": 2242,
      "Ġcompl": 2243,
      "Ġreality": 2244,
      "Ġremind": 2245,
      "Ġsometimes": 2246,
      "Ġprot": 2247,
      "ential": 2248,
      "Ġliving": 2249,
      "Ġpay": 2250,
      "Ġtalking": 2251,
      "Ġdetail": 2252,
      "Ġparticularly": 2253,
      "ĠBritish": 2254,
      "Ġhell": 2255,
      "Ġdev": 2256,
      "Ġcinematography": 2257,
      "ON": 2258,
      "Ġcool": 2259,
      "Ġpot": 2260,
      "Ġtells": 2261,
      "real": 2262,
      "Ġnarr": 2263,
      "Ġwee": 2264,
      "Ġatmosp": 2265,
      "Ġvict": 2266,
      "Ġshots": 2267,
      "which": 2268,
      "Ġfemale": 2269,
      "ien": 2270,
      "Ġhot": 2271,
      "Ġopening": 2272,
      "Ġant": 2273,
      "Ġsol": 2274,
      "ina": 2275,
      "Ġnear": 2276,
      "Ġpossible": 2277,
      "Ġsave": 2278,
      "Ġevents": 2279,
      "wise": 2280,
      "Ġyourself": 2281,
      "ground": 2282,
      "Ġorder": 2283,
      "ichÃ©": 2284,
      "Ġair": 2285,
      "ants": 2286,
      "Ġappreci": 2287,
      "Ġreturn": 2288,
      "ield": 2289,
      "ĠEl": 2290,
      "aterial": 2291,
      "Ġlocal": 2292,
      "ouble": 2293,
      "Ġmoder": 2294,
      "Ġzomb": 2295,
      "ury": 2296,
      "Ġprem": 2297,
      "Ġsingle": 2298,
      "lling": 2299,
      "!!!!": 2300,
      "nded": 2301,
      "ator": 2302,
      "Ġplan": 2303,
      "Al": 2304,
      "ean": 2305,
      "Ġdisappointed": 2306,
      "Ġdisc": 2307,
      "Ġgore": 2308,
      "Ġknows": 2309,
      "Ġeasily": 2310,
      "Ġsent": 2311,
      "Ġdue": 2312,
      "Ġrunning": 2313,
      "Ġten": 2314,
      "Ġsign": 2315,
      "Ġmist": 2316,
      "ĠAd": 2317,
      "unt": 2318,
      "usion": 2319,
      "Ġtelevision": 2320,
      "oud": 2321,
      "Ġbuild": 2322,
      "Ġve": 2323,
      "Ġ20": 2324,
      "Ġstraight": 2325,
      "Ġimportant": 2326,
      "EN": 2327,
      "Ġpri": 2328,
      "omp": 2329,
      "Ġcomic": 2330,
      "ald": 2331,
      "cks": 2332,
      "Ġamong": 2333,
      "Ġdespite": 2334,
      "Ġscary": 2335,
      "Ġknew": 2336,
      "Ġsequence": 2337,
      "Ġapart": 2338,
      "yond": 2339,
      "Ġappears": 2340,
      "Ġproblems": 2341,
      "iel": 2342,
      "ĠDis": 2343,
      "ĠDavid": 2344,
      "ltim": 2345,
      "Ġwish": 2346,
      "Ġhonest": 2347,
      "Ġfilmm": 2348,
      "Ġ!": 2349,
      "Ġforg": 2350,
      "hetic": 2351,
      "OR": 2352,
      "Ġmiddle": 2353,
      "Ġmaterial": 2354,
      "Ġ198": 2355,
      "Ġturned": 2356,
      "ĠNe": 2357,
      "rely": 2358,
      "Ġsets": 2359,
      "ital": 2360,
      "Ġmostly": 2361,
      "Ġwords": 2362,
      "Ġpredictable": 2363,
      "Ġadapt": 2364,
      "Ġintellig": 2365,
      "ball": 2366,
      "Ġtaking": 2367,
      "asy": 2368,
      "form": 2369,
      "nding": 2370,
      "che": 2371,
      "Ġclearly": 2372,
      "ĠOscar": 2373,
      "Ġcart": 2374,
      "uri": 2375,
      "AR": 2376,
      "ained": 2377,
      "Ġdeep": 2378,
      "Ġsupporting": 2379,
      "ĠPer": 2380,
      "rench": 2381,
      "Ġaren": 2382,
      "Ġrespect": 2383,
      "ats": 2384,
      "ara": 2385,
      "Ġ197": 2386,
      "Ġbox": 2387,
      "Ġland": 2388,
      "ubb": 2389,
      "Ġsuspense": 2390,
      "Ġhappy": 2391,
      "gy": 2392,
      "ron": 2393,
      "Ġear": 2394,
      "Ġsold": 2395,
      "ING": 2396,
      "Ġunf": 2397,
      "orable": 2398,
      "ĠclichÃ©": 2399,
      "aker": 2400,
      "Ġcamp": 2401,
      "Ġequ": 2402,
      "Ġfast": 2403,
      "Ġpub": 2404,
      "Ġquestion": 2405,
      "Ġrelease": 2406,
      "back": 2407,
      "An": 2408,
      "Ġepisodes": 2409,
      "go": 2410,
      "Ġmeet": 2411,
      "Ġfuture": 2412,
      "head": 2413,
      "Ġhop": 2414,
      "Ġattention": 2415,
      "Ġviewers": 2416,
      "iction": 2417,
      "Ġactual": 2418,
      "Ġpleas": 2419,
      "Ġaspect": 2420,
      "ĠKing": 2421,
      "Ġpresent": 2422,
      "Ġmodern": 2423,
      "St": 2424,
      "ĠGerman": 2425,
      "Wh": 2426,
      "Ġca": 2427,
      "Ġut": 2428,
      "ises": 2429,
      "asc": 2430,
      "Ġnone": 2431,
      "irector": 2432,
      "Ġentertainment": 2433,
      "Ġcreep": 2434,
      "Ġpoints": 2435,
      "estern": 2436,
      "otic": 2437,
      "ctor": 2438,
      "ĠTom": 2439,
      "ĠMat": 2440,
      "My": 2441,
      "ole": 2442,
      "Ġmark": 2443,
      "ĠPh": 2444,
      "Ġfeels": 2445,
      "Ġbunch": 2446,
      "ush": 2447,
      "Ġfalls": 2448,
      "Ġromantic": 2449,
      "Ġgiving": 2450,
      "Ġstoryline": 2451,
      "Ġusually": 2452,
      "Ġenjoyable": 2453,
      "Ġincluding": 2454,
      "ĠGeorge": 2455,
      "Ġneeds": 2456,
      "Ġbeyond": 2457,
      "Ġeng": 2458,
      "eng": 2459,
      "aur": 2460,
      "ĠAny": 2461,
      "Ġadult": 2462,
      "ices": 2463,
      "Ġanimation": 2464,
      "ĠDo": 2465,
      "Ġteam": 2466,
      "Ġreve": 2467,
      "ension": 2468,
      "where": 2469,
      "Ġabove": 2470,
      "Ġvictim": 2471,
      "inal": 2472,
      "Ġstri": 2473,
      "work": 2474,
      "Ġherself": 2475,
      "Ġmeans": 2476,
      "ressed": 2477,
      "Ġdoubt": 2478,
      "ening": 2479,
      "orry": 2480,
      "Ġprevious": 2481,
      "bs": 2482,
      "Ġmil": 2483,
      "ĠMor": 2484,
      "Ġspir": 2485,
      "aught": 2486,
      "Ġsurprised": 2487,
      "oe": 2488,
      "Ġprog": 2489,
      "!)": 2490,
      "IL": 2491,
      "aby": 2492,
      "OU": 2493,
      "ires": 2494,
      "ously": 2495,
      "sw": 2496,
      "Ġelements": 2497,
      "Ġtypical": 2498,
      "Ġsilly": 2499,
      "Ġodd": 2500,
      "Ġkept": 2501,
      "Ġsexual": 2502,
      "Ġsetting": 2503,
      "ggest": 2504,
      "who": 2505,
      "Ġsequel": 2506,
      "Ġseriously": 2507,
      "Ġru": 2508,
      "Ġdull": 2509,
      "Ġways": 2510,
      "Ġfeature": 2511,
      "Ġclear": 2512,
      "verage": 2513,
      "Ġcheck": 2514,
      "iest": 2515,
      "Ġslight": 2516,
      "Ġeasy": 2517,
      "Ġfive": 2518,
      "Ġsuff": 2519,
      "Ġemb": 2520,
      "Ġhands": 2521,
      "Ġeye": 2522,
      "ĠRichard": 2523,
      "track": 2524,
      "Ġtried": 2525,
      "Ġdocumentary": 2526,
      "Ġparents": 2527,
      "oun": 2528,
      "oof": 2529,
      "ĠSam": 2530,
      "Ġtheme": 2531,
      "oul": 2532,
      "Ġhear": 2533,
      "Ġoverall": 2534,
      "Ġdecided": 2535,
      "eth": 2536,
      "Ġnearly": 2537,
      "Ġbegins": 2538,
      "Ġinsp": 2539,
      "Ġsuperb": 2540,
      "ĠLee": 2541,
      "Ġhate": 2542,
      "Ġsuggest": 2543,
      "ĠNOT": 2544,
      "ĠYork": 2545,
      "Ġflaw": 2546,
      "iod": 2547,
      "Ġspoil": 2548,
      "Ġmoving": 2549,
      "ining": 2550,
      "mas": 2551,
      "Ġtheat": 2552,
      "Ġmessage": 2553,
      "Ġcomb": 2554,
      "Ġspeak": 2555,
      "Ġthriller": 2556,
      "Ġfigure": 2557,
      "Ġgang": 2558,
      "alian": 2559,
      "Ġcomments": 2560,
      "Ġfamous": 2561,
      "Ġfantastic": 2562,
      "af": 2563,
      "Ġsecret": 2564,
      "ai": 2565,
      "view": 2566,
      "ĠIM": 2567,
      "ental": 2568,
      "Ġhaven": 2569,
      "Ġdru": 2570,
      "Ġsum": 2571,
      "Ġwhether": 2572,
      "ĠDisney": 2573,
      "Ġbro": 2574,
      "Ġvisual": 2575,
      "Ġsoundtrack": 2576,
      "orld": 2577,
      "Ġtwist": 2578,
      "Ġleads": 2579,
      "Ġtheater": 2580,
      "ĠSim": 2581,
      "gic": 2582,
      "ĠTr": 2583,
      "Ġclim": 2584,
      "Ġpersonal": 2585,
      "Ġlame": 2586,
      "ĠBen": 2587,
      "Ġpost": 2588,
      "hic": 2589,
      "arre": 2590,
      "Ġdanc": 2591,
      "Ġtre": 2592,
      "amb": 2593,
      "lier": 2594,
      "',": 2595,
      "You": 2596,
      "Ġstage": 2597,
      "ively": 2598,
      "Ġ80": 2599,
      "wr": 2600,
      "Ġwithin": 2601,
      "uses": 2602,
      "ĠPr": 2603,
      "ĠCon": 2604,
      "Ġcity": 2605,
      "atever": 2606,
      "Ġattack": 2607,
      "irt": 2608,
      "Ġnamed": 2609,
      "ĠMac": 2610,
      "Ġleaves": 2611,
      "Ġupon": 2612,
      "Ġreviews": 2613,
      "key": 2614,
      "Ġgreatest": 2615,
      "Ġrealistic": 2616,
      "Ġexpected": 2617,
      "?<": 2618,
      "Ġred": 2619,
      "Ġfront": 2620,
      "incing": 2621,
      "Ġweird": 2622,
      "Ġworking": 2623,
      "Ġtast": 2624,
      "omin": 2625,
      "ival": 2626,
      "Ġappeal": 2627,
      "Ġatmosphere": 2628,
      "lin": 2629,
      "Ġfell": 2630,
      "cted": 2631,
      "ĠAm": 2632,
      "ĠCol": 2633,
      "ĠAmerica": 2634,
      "dden": 2635,
      "Ġnorm": 2636,
      "Ġaccept": 2637,
      "Ġadvent": 2638,
      "row": 2639,
      "Ġtale": 2640,
      "Ġexist": 2641,
      "ĠOh": 2642,
      "Ġparticular": 2643,
      "ĠSm": 2644,
      "ĠSu": 2645,
      "Ġusing": 2646,
      "oor": 2647,
      "ficult": 2648,
      "verall": 2649,
      "!!!": 2650,
      "atural": 2651,
      "bers": 2652,
      "Ġobs": 2653,
      "Ġlarge": 2654,
      "lor": 2655,
      "Ġbasically": 2656,
      "Ġshowing": 2657,
      "Ġsequences": 2658,
      "Ġwait": 2659,
      "Ġperiod": 2660,
      "Ġbelievable": 2661,
      "Ġbuy": 2662,
      "ially": 2663,
      "ceed": 2664,
      "ged": 2665,
      "avy": 2666,
      "Ġneeded": 2667,
      "Ġdumb": 2668,
      "hood": 2669,
      "rific": 2670,
      "ĠGra": 2671,
      "Ġiss": 2672,
      "Ġnature": 2673,
      "Ġdifficult": 2674,
      "Ġediting": 2675,
      "Ġapparently": 2676,
      "ĠJapanese": 2677,
      "Ġsens": 2678,
      "Ġappro": 2679,
      "ges": 2680,
      "Ġfree": 2681,
      "Ġband": 2682,
      "Ġsoc": 2683,
      "Ġrock": 2684,
      "Ġbusiness": 2685,
      "Ġwrit": 2686,
      "oose": 2687,
      "ĠMart": 2688,
      "more": 2689,
      "ĠUS": 2690,
      "Ġwind": 2691,
      "Ġsudden": 2692,
      "Ġsurv": 2693,
      "Ġcredits": 2694,
      "Ġwit": 2695,
      "Ġrese": 2696,
      "ett": 2697,
      "ills": 2698,
      "Ġ199": 2699,
      "Ġchees": 2700,
      "Ġexplo": 2701,
      "?\"": 2702,
      "ius": 2703,
      "Ġolder": 2704,
      "ĠUnfortunately": 2705,
      "kay": 2706,
      "Ġ30": 2707,
      "ĠPeter": 2708,
      "cl": 2709,
      "uro": 2710,
      "Ġtruth": 2711,
      "cessary": 2712,
      "king": 2713,
      "Ġpoorly": 2714,
      "Ġgone": 2715,
      "Ġfilmed": 2716,
      "ĠFrench": 2717,
      "Ġinterested": 2718,
      "rid": 2719,
      "Ġcur": 2720,
      "elly": 2721,
      "Ġ`": 2722,
      "ĠAlthough": 2723,
      "ĠMaybe": 2724,
      "erry": 2725,
      "Ġfire": 2726,
      "esome": 2727,
      "Ġmasterp": 2728,
      "Ġpremise": 2729,
      "ĠOK": 2730,
      "Ġbecame": 2731,
      "Ġbackground": 2732,
      "Ġlaw": 2733,
      "hys": 2734,
      "Ch": 2735,
      "bor": 2736,
      "of": 2737,
      "Ġmix": 2738,
      "Ġcap": 2739,
      "Ġexec": 2740,
      "Ġund": 2741,
      "Ġultim": 2742,
      "icks": 2743,
      "Ġbrought": 2744,
      "Ġmystery": 2745,
      "ogn": 2746,
      "ĠFrank": 2747,
      "'.": 2748,
      "ppy": 2749,
      "Ġunique": 2750,
      "ĠWho": 2751,
      "Ġmeaning": 2752,
      "Ġmale": 2753,
      "Ġpure": 2754,
      "Ġlos": 2755,
      "Ġaverage": 2756,
      "Ġwood": 2757,
      "pend": 2758,
      "Ġdesign": 2759,
      "Ġdance": 2760,
      "Ġbel": 2761,
      "Ġshame": 2762,
      "udd": 2763,
      "Ġearlier": 2764,
      "EA": 2765,
      "Ġid": 2766,
      "chie": 2767,
      "irc": 2768,
      "acing": 2769,
      "por": 2770,
      "ĠJim": 2771,
      "One": 2772,
      "ear": 2773,
      "aris": 2774,
      "Ġliter": 2775,
      "urther": 2776,
      "Ġinte": 2777,
      "ES": 2778,
      "lfriend": 2779,
      "Ġviewing": 2780,
      "Ġvillain": 2781,
      "over": 2782,
      "arring": 2783,
      "Ġdevelopment": 2784,
      "rated": 2785,
      "time": 2786,
      "Ġdie": 2787,
      "Ġwrite": 2788,
      "Ġmemorable": 2789,
      "Ġ*": 2790,
      "Ġlim": 2791,
      "Ġ70": 2792,
      "Ġutter": 2793,
      "ived": 2794,
      "vent": 2795,
      "Ġconcept": 2796,
      "Ġpossibly": 2797,
      "Ġfasc": 2798,
      "ĠChe": 2799,
      "ĠCan": 2800,
      "Ġcrime": 2801,
      "ĠAf": 2802,
      "Ġsituation": 2803,
      "Ġ$": 2804,
      "So": 2805,
      "ĠMost": 2806,
      "Ġintrodu": 2807,
      "ume": 2808,
      "Ġimm": 2809,
      "Ġmill": 2810,
      "Ġ/>\"": 2811,
      "urd": 2812,
      "Ġemotion": 2813,
      "een": 2814,
      "Ġforward": 2815,
      "Ġlots": 2816,
      "host": 2817,
      "onic": 2818,
      "arch": 2819,
      "Ġplain": 2820,
      "Ġquickly": 2821,
      "Ġstun": 2822,
      "Ġdirecting": 2823,
      "Ġsurprise": 2824,
      "isf": 2825,
      "ĠLike": 2826,
      "Ġfeatures": 2827,
      "tt": 2828,
      "fer": 2829,
      "Ġthird": 2830,
      "Ġdirectors": 2831,
      "Ġfootage": 2832,
      "well": 2833,
      "zz": 2834,
      "Ġrealize": 2835,
      "Ġemotional": 2836,
      "iliar": 2837,
      "Âħ": 2838,
      "ero": 2839,
      "anks": 2840,
      "Ġstrugg": 2841,
      "Ġprop": 2842,
      "All": 2843,
      "unny": 2844,
      "Ġbored": 2845,
      "Ġplease": 2846,
      "Ġallow": 2847,
      "Ġinnoc": 2848,
      "iences": 2849,
      "Ġworked": 2850,
      "Th": 2851,
      "ĠDr": 2852,
      "Ġgrand": 2853,
      "Ġpublic": 2854,
      "ele": 2855,
      "iny": 2856,
      "Ġsociety": 2857,
      "Ġrob": 2858,
      "Ġdisturb": 2859,
      "ĠYes": 2860,
      "Ġfails": 2861,
      "Ġcartoon": 2862,
      "For": 2863,
      "ĠWood": 2864,
      "ager": 2865,
      "Ġanyway": 2866,
      "Ġhistor": 2867,
      "ĠIMD": 2868,
      "When": 2869,
      "look": 2870,
      "Ġscreenplay": 2871,
      "?)": 2872,
      "Ġsil": 2873,
      "erm": 2874,
      "eless": 2875,
      "Ġsomehow": 2876,
      "Ġtrad": 2877,
      "Ġprison": 2878,
      "Ġsocial": 2879,
      "Ġminute": 2880,
      "Ġdramatic": 2881,
      "Ġbar": 2882,
      "Ġconne": 2883,
      "Ġkilling": 2884,
      "Ġresp": 2885,
      "Ġkeeps": 2886,
      "cious": 2887,
      "rif": 2888,
      "gest": 2889,
      "ĠTw": 2890,
      "Ġenc": 2891,
      "ĠScott": 2892,
      "Ġcreepy": 2893,
      "Ġforced": 2894,
      "Ġmeets": 2895,
      "Ġproject": 2896,
      "arrass": 2897,
      "Ġvarious": 2898,
      "Ġtowards": 2899,
      "Ġbrings": 2900,
      "Ġromance": 2901,
      "Ġ90": 2902,
      "friend": 2903,
      "rey": 2904,
      "Ġoper": 2905,
      "allow": 2906,
      "ĠPat": 2907,
      "this": 2908,
      "ĠGu": 2909,
      "Ġreading": 2910,
      "ze": 2911,
      "Ġstep": 2912,
      "itty": 2913,
      "Ġlaughs": 2914,
      "ĠIts": 2915,
      "idden": 2916,
      "reed": 2917,
      "ĠFred": 2918,
      "Ġ195": 2919,
      "Ġexpress": 2920,
      "Ġfairly": 2921,
      "\")": 2922,
      "IS": 2923,
      "ries": 2924,
      "ĠNight": 2925,
      "ases": 2926,
      "Ġyes": 2927,
      "Ġagree": 2928,
      "Ġprofess": 2929,
      "inger": 2930,
      "Ġamount": 2931,
      "Ġcreate": 2932,
      "Ġpurp": 2933,
      "Ġembarrass": 2934,
      "Ġsick": 2935,
      "Ġcry": 2936,
      "Ġnor": 2937,
      "ĠJane": 2938,
      "ĠJoe": 2939,
      "Ġrevol": 2940,
      "Ġadmit": 2941,
      "Ġcatch": 2942,
      "Ġflat": 2943,
      "Ġrecogn": 2944,
      "Ġclever": 2945,
      "Ġwriters": 2946,
      "hel": 2947,
      "Ġrepe": 2948,
      "ĠMe": 2949,
      "ĠChristmas": 2950,
      "vin": 2951,
      "Ġ:": 2952,
      "Ġwhom": 2953,
      "spect": 2954,
      "Ġunlike": 2955,
      "Ġimagine": 2956,
      "Ġspirit": 2957,
      "ĠEuro": 2958,
      "angu": 2959,
      "Ġgeneral": 2960,
      "Ġfantasy": 2961,
      "Ġpopular": 2962,
      "Ġcheesy": 2963,
      "Ġign": 2964,
      "ague": 2965,
      "Ġmeant": 2966,
      "Ġclaim": 2967,
      "ibility": 2968,
      "Ġleading": 2969,
      "Ġsweet": 2970,
      "belie": 2971,
      "Ġpositive": 2972,
      "erv": 2973,
      "ĠInst": 2974,
      "Ġoccas": 2975,
      "Ġpotential": 2976,
      "Ġgirlfriend": 2977,
      "Ġideas": 2978,
      "Ġdam": 2979,
      "ĠAng": 2980,
      "ĠThese": 2981,
      "oles": 2982,
      "Ġbadly": 2983,
      "Ġmad": 2984,
      "ĠGood": 2985,
      "Ġcopy": 2986,
      "kn": 2987,
      "ashing": 2988,
      "ĠTim": 2989,
      "Ġwasted": 2990,
      "lex": 2991,
      "ula": 2992,
      "Ġjoke": 2993,
      "Ġspace": 2994,
      "Ġperfectly": 2995,
      "Ġmanages": 2996,
      "Ġbeauty": 2997,
      "Ġtotal": 2998,
      "ED": 2999,
      "Ġaut": 3000,
      "Ġstere": 3001,
      "Ġavoid": 3002,
      "Ġbattle": 3003,
      "Ġdestro": 3004,
      "Ġmissing": 3005,
      "ology": 3006,
      "ĠQu": 3007,
      "ivers": 3008,
      "Ġattract": 3009,
      "bert": 3010,
      "mist": 3011,
      "Ġcond": 3012,
      "Ġlady": 3013,
      "vered": 3014,
      "Ġdog": 3015,
      "Ġmasterpiece": 3016,
      "Ġmatch": 3017,
      "asher": 3018,
      "ĠFrom": 3019,
      "Ġcasting": 3020,
      "Ġincredibly": 3021,
      "Ġer": 3022,
      "pper": 3023,
      "ford": 3024,
      "wart": 3025,
      "ĠLu": 3026,
      "ivid": 3027,
      "Ġachie": 3028,
      "Ġrelig": 3029,
      "Ġacted": 3030,
      "Ġoutside": 3031,
      "Ġdeserves": 3032,
      "Ġsleep": 3033,
      "olf": 3034,
      "ĠBar": 3035,
      "Ġfighting": 3036,
      "medi": 3037,
      "Ġeventually": 3038,
      "ĠBy": 3039,
      "berg": 3040,
      "OM": 3041,
      "acy": 3042,
      "iver": 3043,
      "iving": 3044,
      "Ġcirc": 3045,
      "ĠAN": 3046,
      "with": 3047,
      "iff": 3048,
      "ĠFirst": 3049,
      "Ġ193": 3050,
      "How": 3051,
      "ades": 3052,
      "Ġflash": 3053,
      "ips": 3054,
      "Ġextra": 3055,
      "Ġdelight": 3056,
      "agon": 3057,
      "Ġaccent": 3058,
      "Ġbiggest": 3059,
      "Ġhom": 3060,
      "Ġrad": 3061,
      "venge": 3062,
      "Ġcommun": 3063,
      "lying": 3064,
      "ĠCom": 3065,
      "Ġneg": 3066,
      "Ġuses": 3067,
      "Ġmembers": 3068,
      "Ġmid": 3069,
      "Ġbare": 3070,
      "Ġphys": 3071,
      "ĠStre": 3072,
      "ective": 3073,
      "ĠIMDb": 3074,
      "Ġsounds": 3075,
      "Ġmonster": 3076,
      "ĠWatch": 3077,
      "Ġsubtle": 3078,
      "Ġinvest": 3079,
      "Ġappreciate": 3080,
      "Ġstereot": 3081,
      "ĠJul": 3082,
      "Ġdesper": 3083,
      "Ġfamiliar": 3084,
      "ĠEurope": 3085,
      "Ġbed": 3086,
      "Ġnud": 3087,
      "uter": 3088,
      "room": 3089,
      "Ġrich": 3090,
      "Ġmurd": 3091,
      "oman": 3092,
      "aked": 3093,
      "Ġcover": 3094,
      "Ġsymp": 3095,
      "Ġpolitical": 3096,
      "ĠBig": 3097,
      "ĠEx": 3098,
      "Ġportrayed": 3099,
      "Ġmentioned": 3100,
      "Ġhy": 3101,
      "ĠFilm": 3102,
      "Ġreasons": 3103,
      "Ġwaiting": 3104,
      "Ġsorry": 3105,
      "let": 3106,
      "resh": 3107,
      "Ġrece": 3108,
      "ding": 3109,
      "ĠII": 3110,
      "Ġdepth": 3111,
      "Ġcontrol": 3112,
      "par": 3113,
      "Ġ...": 3114,
      "inating": 3115,
      "Ġclos": 3116,
      "Ġimmedi": 3117,
      "Ġpointless": 3118,
      "Ġtrail": 3119,
      "Ġdraw": 3120,
      "Ġimpressive": 3121,
      "Ġpowerful": 3122,
      "Ġexpecting": 3123,
      "Ġindeed": 3124,
      "ored": 3125,
      "Ġmel": 3126,
      "Ġhair": 3127,
      "Ġtalented": 3128,
      "ral": 3129,
      "Ġreact": 3130,
      "Ġscient": 3131,
      "iously": 3132,
      "Ġcolle": 3133,
      "Ġidi": 3134,
      "ĠSch": 3135,
      "Ġremake": 3136,
      "itation": 3137,
      "ieces": 3138,
      "thur": 3139,
      "Ġinside": 3140,
      "Ġreveal": 3141,
      "On": 3142,
      "Ġpace": 3143,
      "Ġmod": 3144,
      "Ġ(\"": 3145,
      "ĠGold": 3146,
      "acher": 3147,
      "Ġmissed": 3148,
      "val": 3149,
      "ask": 3150,
      "Ġansw": 3151,
      "rian": 3152,
      "iller": 3153,
      "Ġtelling": 3154,
      "Ġentirely": 3155,
      "Ġlangu": 3156,
      "Ġjour": 3157,
      "Ġmedi": 3158,
      "mon": 3159,
      "arl": 3160,
      "itary": 3161,
      "emy": 3162,
      "Ġcompe": 3163,
      "Ġfilmmakers": 3164,
      "Ġslightly": 3165,
      "Ġfurther": 3166,
      "sters": 3167,
      "Ġrecently": 3168,
      "Ġcrazy": 3169,
      "ĠAfric": 3170,
      "Ġble": 3171,
      "ĠBill": 3172,
      "Ġ196": 3173,
      "ĠBat": 3174,
      "Ġsuck": 3175,
      "Ġhardly": 3176,
      "ĠBlack": 3177,
      "OW": 3178,
      "lect": 3179,
      "uted": 3180,
      "Ġaccident": 3181,
      "Ġaf": 3182,
      "Ġaff": 3183,
      "Ġwall": 3184,
      "ĠWorld": 3185,
      "Ġended": 3186,
      "ashion": 3187,
      "isingly": 3188,
      "Ġcrew": 3189,
      "TH": 3190,
      "bl": 3191,
      "Ġine": 3192,
      "Ġjud": 3193,
      "Ġ15": 3194,
      "Ġspent": 3195,
      "Ġcomplex": 3196,
      "cent": 3197,
      "Ġdoll": 3198,
      "Ġplenty": 3199,
      "Ġremark": 3200,
      "Ġest": 3201,
      "ĠStar": 3202,
      "Ġcontr": 3203,
      "Ġdecides": 3204,
      "lusion": 3205,
      "su": 3206,
      "Ġcute": 3207,
      "Ġmoves": 3208,
      "Ġunbelie": 3209,
      "Ġcaught": 3210,
      "Ġwhatever": 3211,
      "Ġattempts": 3212,
      "Ġconcern": 3213,
      "ĠMary": 3214,
      "ĠDead": 3215,
      "Ġamb": 3216,
      "Ġexciting": 3217,
      "Ġmarried": 3218,
      "ened": 3219,
      "Ġporn": 3220,
      "Ġlaughing": 3221,
      "ites": 3222,
      "ateur": 3223,
      "Ġforgot": 3224,
      "PO": 3225,
      "ishing": 3226,
      "alth": 3227,
      "Ġrede": 3228,
      "Ġstick": 3229,
      "andy": 3230,
      "ossible": 3231,
      "con": 3232,
      "aging": 3233,
      "izing": 3234,
      "Ġbrief": 3235,
      "Ġrepres": 3236,
      "Ġtension": 3237,
      "Ġimpro": 3238,
      "Ġsinging": 3239,
      "Ġcommon": 3240,
      "Ġmass": 3241,
      "vern": 3242,
      "Ġsees": 3243,
      "Ġconvincing": 3244,
      "Ġsolid": 3245,
      "Well": 3246,
      "oes": 3247,
      "iced": 3248,
      "Ġexplain": 3249,
      "Ġnudity": 3250,
      "ĠItalian": 3251,
      "Ġdancing": 3252,
      "Ġfol": 3253,
      "Ġportrayal": 3254,
      "Ġ194": 3255,
      "Ġvalue": 3256,
      "Ġescape": 3257,
      "ĠInstead": 3258,
      "come": 3259,
      "Ġess": 3260,
      "Ġfunn": 3261,
      "uine": 3262,
      "Ġera": 3263,
      "Ġstat": 3264,
      "une": 3265,
      "Ġrap": 3266,
      "Ġmach": 3267,
      "Ġrequ": 3268,
      "umes": 3269,
      "bo": 3270,
      "Ġnote": 3271,
      "Ġcollect": 3272,
      "Ġzombie": 3273,
      "yl": 3274,
      "ĠKelly": 3275,
      "Ġball": 3276,
      "ĠMon": 3277,
      "aine": 3278,
      "Ġintri": 3279,
      "Ġcredit": 3280,
      "ĠHouse": 3281,
      "Ġslasher": 3282,
      "Ġdecide": 3283,
      "Ġbooks": 3284,
      "aven": 3285,
      "cher": 3286,
      "Ġformer": 3287,
      "while": 3288,
      "boy": 3289,
      "ging": 3290,
      "Ġsatisf": 3291,
      "Ġchanged": 3292,
      "Ġscream": 3293,
      "ĠPro": 3294,
      "Ġfilled": 3295,
      "gend": 3296,
      "Ġrecord": 3297,
      "vil": 3298,
      "Ġident": 3299,
      "rel": 3300,
      "ette": 3301,
      "idered": 3302,
      "Ġearth": 3303,
      "irl": 3304,
      "Ġcolor": 3305,
      "imp": 3306,
      "ĠJe": 3307,
      "Ġamateur": 3308,
      "ha": 3309,
      "iers": 3310,
      "alt": 3311,
      "000": 3312,
      "Ġfaith": 3313,
      "Ġincredible": 3314,
      "Ġtaste": 3315,
      "ĠHere": 3316,
      "Ġchoice": 3317,
      "Ġwater": 3318,
      "mistry": 3319,
      "Ġyounger": 3320,
      "Ġeffective": 3321,
      "Ġfollowing": 3322,
      "Ġintelligent": 3323,
      "OO": 3324,
      "VER": 3325,
      "ified": 3326,
      "ĠVan": 3327,
      "Ġgenuine": 3328,
      "Not": 3329,
      "Ġfocus": 3330,
      "Ġweek": 3331,
      "ĠBra": 3332,
      "Ġunfortunately": 3333,
      "Ġinvolving": 3334,
      "Ġauth": 3335,
      "lyn": 3336,
      "Ġshowed": 3337,
      "itted": 3338,
      "Ġlikes": 3339,
      "Ġadventure": 3340,
      "cast": 3341,
      "fi": 3342,
      "Ġmanner": 3343,
      "Ġconsidered": 3344,
      "Ġredeem": 3345,
      "oop": 3346,
      "rage": 3347,
      "ĠLou": 3348,
      "standing": 3349,
      "Ġboys": 3350,
      "Ġcreated": 3351,
      "Ġsuccessful": 3352,
      "Ġadaptation": 3353,
      "inary": 3354,
      "opher": 3355,
      "Ġspend": 3356,
      "ĠRed": 3357,
      "Ġrecent": 3358,
      "Ġdied": 3359,
      "iment": 3360,
      "Ġdanger": 3361,
      "ĠWay": 3362,
      "Ġviolent": 3363,
      "LE": 3364,
      "Ġarri": 3365,
      "known": 3366,
      "Ġbother": 3367,
      "ana": 3368,
      "ĠAlex": 3369,
      "Ġrate": 3370,
      "ilt": 3371,
      "Ġtrouble": 3372,
      "Ġminor": 3373,
      "Ġglad": 3374,
      "bb": 3375,
      "Ġhang": 3376,
      "Ġotherwise": 3377,
      "ization": 3378,
      "Ġcompared": 3379,
      "ki": 3380,
      "rend": 3381,
      "Ġluck": 3382,
      "Ġtrack": 3383,
      "Ġruns": 3384,
      "iven": 3385,
      "arily": 3386,
      "Ġweren": 3387,
      "Ġchemistry": 3388,
      "Ġopportun": 3389,
      "ĠGreat": 3390,
      "Ġisland": 3391,
      "Ġjump": 3392,
      "ĠEm": 3393,
      "ĠOther": 3394,
      "Ġground": 3395,
      "Ġfollows": 3396,
      "Ġshooting": 3397,
      "lu": 3398,
      "Ġwild": 3399,
      "Ġgay": 3400,
      "owers": 3401,
      "Ġcritic": 3402,
      "Ġstereotyp": 3403,
      "idence": 3404,
      "Ġunless": 3405,
      "Ġbiz": 3406,
      "ĠTra": 3407,
      "ĠAct": 3408,
      "ĠRock": 3409,
      "plic": 3410,
      "cing": 3411,
      "Ġwestern": 3412,
      "Ġbeat": 3413,
      "oph": 3414,
      "Ġsqu": 3415,
      "Ġfit": 3416,
      "Ġcold": 3417,
      "Ġpract": 3418,
      "ĠAnt": 3419,
      "Ġtravel": 3420,
      "Ġconclusion": 3421,
      "Ġsituations": 3422,
      "ĠDes": 3423,
      "***": 3424,
      "Ġtrip": 3425,
      "Ġproduct": 3426,
      "Ġfailed": 3427,
      "Ġheavy": 3428,
      "ĠPark": 3429,
      "Ġlonger": 3430,
      "Ġdisturbing": 3431,
      "Ġlanguage": 3432,
      "iles": 3433,
      "iding": 3434,
      "Ġexception": 3435,
      "Ġquestions": 3436,
      "Ġcompany": 3437,
      "Ġpers": 3438,
      "ĠBur": 3439,
      "ottom": 3440,
      "Ġpurpose": 3441,
      "min": 3442,
      "night": 3443,
      "Ġbaby": 3444,
      "Ġgarb": 3445,
      "set": 3446,
      "Ġghost": 3447,
      "ĠEarth": 3448,
      "Ġhumour": 3449,
      "Ġmagic": 3450,
      "Ġproducers": 3451,
      "ĠSmith": 3452,
      "Ġstarring": 3453,
      "Ġwrote": 3454,
      "aus": 3455,
      "ares": 3456,
      "movie": 3457,
      "Ġsav": 3458,
      "Ġ50": 3459,
      "Ġtort": 3460,
      "inn": 3461,
      "Ġsoul": 3462,
      "Ġcross": 3463,
      "ĠChristian": 3464,
      "Ġgovern": 3465,
      "Ġelement": 3466,
      "Ġbrain": 3467,
      "Ġrefe": 3468,
      "Ġtough": 3469,
      "orts": 3470,
      "Ġkills": 3471,
      "Ġcontinu": 3472,
      "formation": 3473,
      "round": 3474,
      "itions": 3475,
      "Ġsomewhere": 3476,
      "att": 3477,
      "Ġoffice": 3478,
      "Ġimmediately": 3479,
      "After": 3480,
      "Ġfake": 3481,
      "Ġneigh": 3482,
      "Ġunin": 3483,
      "rect": 3484,
      "Ġloud": 3485,
      "Ġdefe": 3486,
      "Ġcomputer": 3487,
      "Ġvalues": 3488,
      "ribly": 3489,
      "ener": 3490,
      "ĠMad": 3491,
      "Ġcharming": 3492,
      "ondon": 3493,
      "Ġparty": 3494,
      "Ġbrut": 3495,
      "rupt": 3496,
      "Ġstreet": 3497,
      "Ġstore": 3498,
      "ĠCor": 3499,
      "ĠCra": 3500,
      "Ġtrash": 3501,
      "Ġdisg": 3502,
      "icted": 3503,
      "Ġgenius": 3504,
      "Ġgenerally": 3505,
      "gl": 3506,
      "Ġbreat": 3507,
      "Ġnatural": 3508,
      "Ġrevenge": 3509,
      "izes": 3510,
      "Ġcrim": 3511,
      "First": 3512,
      "aire": 3513,
      "Ġbought": 3514,
      "elling": 3515,
      "Ġoffic": 3516,
      "Ġimpossible": 3517,
      "ILER": 3518,
      "iring": 3519,
      "Ġterms": 3520,
      "urch": 3521,
      "ĠMovie": 3522,
      "Ġamusing": 3523,
      "ressing": 3524,
      "Ġspot": 3525,
      "Ġstudio": 3526,
      "you": 3527,
      "Ġsci": 3528,
      "Ġcompet": 3529,
      "Ġproduced": 3530,
      "Ġanti": 3531,
      "Ġsympat": 3532,
      "eg": 3533,
      "Ġtest": 3534,
      "Ġrand": 3535,
      "Ġabsurd": 3536,
      "annel": 3537,
      "Ġfashion": 3538,
      "Ġneither": 3539,
      "Ġroll": 3540,
      "Ġcarry": 3541,
      "Ġflashback": 3542,
      "Ġbarely": 3543,
      "Don": 3544,
      "Ġpack": 3545,
      "ĠMel": 3546,
      "Ġobsess": 3547,
      "men": 3548,
      "Ġdro": 3549,
      "ĠEn": 3550,
      "ictor": 3551,
      "Ġawesome": 3552,
      "ĠSteve": 3553,
      "POILER": 3554,
      "even": 3555,
      "lease": 3556,
      "Ġanimated": 3557,
      "Ġsuddenly": 3558,
      "ĠTony": 3559,
      "Ġmanaged": 3560,
      "ĠChris": 3561,
      "Ġgarbage": 3562,
      "Ġspect": 3563,
      "Ġmer": 3564,
      "str": 3565,
      "ological": 3566,
      "Ġimpression": 3567,
      "Ġmood": 3568,
      "ĠGo": 3569,
      "Ġgod": 3570,
      "Ġthinks": 3571,
      "mm": 3572,
      "Ġfat": 3573,
      "Ġgag": 3574,
      "Ġcontri": 3575,
      "Ġrare": 3576,
      "Ġsexy": 3577,
      "Ġaudiences": 3578,
      "Ġdetails": 3579,
      "Ġprogram": 3580,
      "Ġapproach": 3581,
      "ĠSer": 3582,
      "Ġroad": 3583,
      "Ġmilitary": 3584,
      "AD": 3585,
      "Ġaffect": 3586,
      "arm": 3587,
      "ĠLove": 3588,
      "ĠLondon": 3589,
      "Ġleaving": 3590,
      "Ġaddition": 3591,
      "Ġfavour": 3592,
      "Ġinnocent": 3593,
      "no": 3594,
      "Ġunex": 3595,
      "Ġoccur": 3596,
      "Ġculture": 3597,
      "\".<": 3598,
      "Ġcuri": 3599,
      "Ġuns": 3600,
      "Ġrandom": 3601,
      "ify": 3602,
      "ĠStewart": 3603,
      "Ġappearance": 3604,
      "We": 3605,
      "Ġfresh": 3606,
      "ales": 3607,
      "vey": 3608,
      "Ġcharm": 3609,
      "Ġpresence": 3610,
      "Ġauthor": 3611,
      "unting": 3612,
      "istent": 3613,
      "Ġtouch": 3614,
      "Ġcollege": 3615,
      "vir": 3616,
      "iche": 3617,
      "Ġconstantly": 3618,
      "Ġstate": 3619,
      "ĠBest": 3620,
      "Ġsuc": 3621,
      "Ġdoctor": 3622,
      "ĠOF": 3623,
      "appe": 3624,
      "Ġmonth": 3625,
      "Ġultimately": 3626,
      "upp": 3627,
      "Ġsix": 3628,
      "Ġimages": 3629,
      "AS": 3630,
      "Ġbull": 3631,
      "Ġboss": 3632,
      "Ġthreat": 3633,
      "Ġvamp": 3634,
      "estival": 3635,
      "Ġtwists": 3636,
      "Ġstands": 3637,
      "ecause": 3638,
      "Ġconsidering": 3639,
      "Ġcause": 3640,
      "Ġnumb": 3641,
      "Ġinsult": 3642,
      "Ġnarrative": 3643,
      "OV": 3644,
      "Ġgem": 3645,
      "ĠWest": 3646,
      "ropri": 3647,
      "rem": 3648,
      "Ġcru": 3649,
      "sequ": 3650,
      "anda": 3651,
      "ĠRuss": 3652,
      "vert": 3653,
      "Ġtouching": 3654,
      "Ġutterly": 3655,
      "ena": 3656,
      "Ġoffe": 3657,
      "Ġclot": 3658,
      "Ġaccur": 3659,
      "Ġregard": 3660,
      "Ġdeliver": 3661,
      "Ġfilming": 3662,
      "Ġsuit": 3663,
      "ensive": 3664,
      "lessly": 3665,
      "ength": 3666,
      "Ġclimax": 3667,
      "Ġnormal": 3668,
      "ĠSuper": 3669,
      "Ġsitting": 3670,
      "Ġdad": 3671,
      "Ġlau": 3672,
      "Ġsto": 3673,
      "ĠMiss": 3674,
      "Ġcommer": 3675,
      "Ġability": 3676,
      "Ġstandard": 3677,
      "ĠAdam": 3678,
      "Ġmakers": 3679,
      "Ġnotice": 3680,
      "ĠHen": 3681,
      "that": 3682,
      "Ġthemes": 3683,
      "aper": 3684,
      "Ġ40": 3685,
      "IT": 3686,
      "oices": 3687,
      "ĠHor": 3688,
      "ands": 3689,
      "ĠAnn": 3690,
      "Ġmistake": 3691,
      "Ġartist": 3692,
      "Ġaspects": 3693,
      "Ġbizarre": 3694,
      "house": 3695,
      "Ġdig": 3696,
      "icated": 3697,
      "Ġlikely": 3698,
      "Ġdrawn": 3699,
      "CH": 3700,
      "making": 3701,
      "stem": 3702,
      "Ġseg": 3703,
      "aining": 3704,
      "Ġanimals": 3705,
      "Ġdreams": 3706,
      "BC": 3707,
      "Ġgrap": 3708,
      "ĠJes": 3709,
      "Ġprotagon": 3710,
      "Ġdestroy": 3711,
      "Ġsucceed": 3712,
      "Ġburn": 3713,
      "ĠCity": 3714,
      "Ġsurprisingly": 3715,
      "Ġcompelling": 3716,
      "reaking": 3717,
      "Ġsuspect": 3718,
      "Ġfear": 3719,
      "Ġterrific": 3720,
      "fort": 3721,
      "irty": 3722,
      "ĠBoy": 3723,
      "Ġalive": 3724,
      "Ġscenery": 3725,
      "Ġthrow": 3726,
      "part": 3727,
      "Ġunbelievable": 3728,
      "ode": 3729,
      "Ġpathetic": 3730,
      "Ġdin": 3731,
      "Ġplaces": 3732,
      "Ġtradition": 3733,
      "Be": 3734,
      "Ġfully": 3735,
      "ĠFl": 3736,
      "ĠStill": 3737,
      "Ġnowhere": 3738,
      "ring": 3739,
      "Ġmult": 3740,
      "Ġinclude": 3741,
      "Ġliterally": 3742,
      "Ġdread": 3743,
      "Ġunne": 3744,
      "Ġserial": 3745,
      "Ġadded": 3746,
      "Ġkick": 3747,
      "Ġdisappointment": 3748,
      "ĠOnly": 3749,
      "Ġinvestig": 3750,
      "Ġrepl": 3751,
      "Ġsurround": 3752,
      "Ġsystem": 3753,
      "That": 3754,
      "Ġtone": 3755,
      "ribe": 3756,
      "Ġqual": 3757,
      "ĠHarry": 3758,
      "Ġstunning": 3759,
      "Ġhistorical": 3760,
      "==": 3761,
      "Ġwarn": 3762,
      "Ġbomb": 3763,
      "Ġforce": 3764,
      "ĠBo": 3765,
      "text": 3766,
      "Ġprep": 3767,
      "Ġdrive": 3768,
      "uk": 3769,
      "Ġur": 3770,
      "ĠBro": 3771,
      "Ġscience": 3772,
      "Ġthrown": 3773,
      "Ġfinish": 3774,
      "Ġpainful": 3775,
      "Sh": 3776,
      "Ġdoor": 3777,
      "Ġdef": 3778,
      "Ġdisappointing": 3779,
      "ĠIndian": 3780,
      "Ġequally": 3781,
      "Ġgovernment": 3782,
      "Ġmir": 3783,
      "ĠSw": 3784,
      "rences": 3785,
      "Ġlaughable": 3786,
      "Ġpresented": 3787,
      "anna": 3788,
      "Ġissues": 3789,
      "ĠParis": 3790,
      "oughly": 3791,
      "ĠYet": 3792,
      "Ġfascinating": 3793,
      "ĠJeff": 3794,
      "Ġcommercial": 3795,
      "aff": 3796,
      "Ġlad": 3797,
      "Ġchall": 3798,
      "ĠWW": 3799,
      "Ġimage": 3800,
      "Ġknowing": 3801,
      "ĠHarr": 3802,
      "Ġproper": 3803,
      "Ġlacks": 3804,
      "ĠCharlie": 3805,
      "Ġsoft": 3806,
      "abb": 3807,
      "ability": 3808,
      "arsh": 3809,
      "Ġdifference": 3810,
      "Ġdiscuss": 3811,
      "IE": 3812,
      "mar": 3813,
      "Ġspl": 3814,
      "ĠStan": 3815,
      "Ġkey": 3816,
      "Ġmillion": 3817,
      "Ġtired": 3818,
      "reg": 3819,
      "Ġacts": 3820,
      "Ġplus": 3821,
      "Ġmoral": 3822,
      "Ġchanges": 3823,
      "Jo": 3824,
      "ront": 3825,
      "table": 3826,
      "Ġast": 3827,
      "Ġrout": 3828,
      "Ġleg": 3829,
      "ached": 3830,
      "ĠPerhaps": 3831,
      "Ġjo": 3832,
      "ĠLet": 3833,
      "Ġoffer": 3834,
      "Ġpictures": 3835,
      "Ġemotions": 3836,
      "Ġmedioc": 3837,
      "budget": 3838,
      "pro": 3839,
      "inct": 3840,
      "ĠSouth": 3841,
      "ĠCG": 3842,
      "ĠPal": 3843,
      "Ġhasn": 3844,
      "Ġteacher": 3845,
      "azz": 3846,
      "appy": 3847,
      "Ġputs": 3848,
      "cer": 3849,
      "rick": 3850,
      "ĠDirector": 3851,
      "Ġintern": 3852,
      "He": 3853,
      "ision": 3854,
      "Ġnames": 3855,
      "abor": 3856,
      "Ġcinematic": 3857,
      "Ġbasic": 3858,
      "Ġphotograp": 3859,
      "ĠBru": 3860,
      "ĠVictor": 3861,
      "Ġlikable": 3862,
      "ID": 3863,
      "Ġdies": 3864,
      "ĠIS": 3865,
      "Ġbehav": 3866,
      "Ġdrunk": 3867,
      "Ġescap": 3868,
      "To": 3869,
      "ĠSand": 3870,
      "riage": 3871,
      "ĠBel": 3872,
      "Ġrespons": 3873,
      "cle": 3874,
      "kin": 3875,
      "Ġyouth": 3876,
      "ĠPeople": 3877,
      "esides": 3878,
      "ille": 3879,
      "aint": 3880,
      "Ġtrain": 3881,
      "Ġexpectations": 3882,
      "played": 3883,
      "ĠWilliams": 3884,
      "Ġintrigu": 3885,
      "face": 3886,
      "ĠSant": 3887,
      "Ġremains": 3888,
      "Ġcomedies": 3889,
      "ĠGreen": 3890,
      "Ġ18": 3891,
      "Ġcontent": 3892,
      "ledge": 3893,
      "Ġintended": 3894,
      "Ġaffair": 3895,
      "Ġmouth": 3896,
      "ĠBob": 3897,
      "ĠMur": 3898,
      "uster": 3899,
      "exic": 3900,
      "Ġdemon": 3901,
      "Ġmart": 3902,
      "anic": 3903,
      "Ġdate": 3904,
      "Ġedge": 3905,
      "Ġhoping": 3906,
      "iac": 3907,
      "anch": 3908,
      "ĠRo": 3909,
      "oking": 3910,
      "Ġexcuse": 3911,
      "aton": 3912,
      "uts": 3913,
      "ĠAg": 3914,
      "Ġener": 3915,
      "ples": 3916,
      "Ġmagn": 3917,
      "phen": 3918,
      "war": 3919,
      "ĠTre": 3920,
      "ĠHigh": 3921,
      "Ġintense": 3922,
      "Ġ100": 3923,
      "Ġterror": 3924,
      "under": 3925,
      "ishes": 3926,
      "Ġpun": 3927,
      "ĠCal": 3928,
      "Ġcontains": 3929,
      "Ġboyfriend": 3930,
      "rag": 3931,
      "ushed": 3932,
      "tend": 3933,
      "Ġcritics": 3934,
      "eal": 3935,
      "Ġlatter": 3936,
      "ĠJean": 3937,
      "ĠAllen": 3938,
      "Ġavail": 3939,
      "Ġcostumes": 3940,
      "Ġinit": 3941,
      "Ġnobody": 3942,
      "ploy": 3943,
      "Some": 3944,
      "mark": 3945,
      "Ġconfused": 3946,
      "Ġvictims": 3947,
      "Ġopportunity": 3948,
      "vant": 3949,
      "ĠSure": 3950,
      "ĠAb": 3951,
      "ĠDou": 3952,
      "Ġstudent": 3953,
      "Ġindivid": 3954,
      "Ġfolks": 3955,
      "lict": 3956,
      "inally": 3957,
      "ĠBad": 3958,
      "Ġlif": 3959,
      "Ġjoy": 3960,
      "ĠDick": 3961,
      "ĠPart": 3962,
      "Ġinterview": 3963,
      "Ġmysterious": 3964,
      "?!": 3965,
      "ghed": 3966,
      "ipp": 3967,
      "just": 3968,
      "ĠHard": 3969,
      "anted": 3970,
      "Ġoutstanding": 3971,
      "Ġsuppose": 3972,
      "ancy": 3973,
      "Ġimpressed": 3974,
      "Ġphotography": 3975,
      "While": 3976,
      "Ġpil": 3977,
      "icide": 3978,
      "icip": 3979,
      "ĠAustr": 3980,
      "ĠLo": 3981,
      "Ġnumbers": 3982,
      "asty": 3983,
      "Ġhighlight": 3984,
      "Ġbeautifully": 3985,
      "Ġslowly": 3986,
      "ĠCanad": 3987,
      "Oh": 3988,
      "Overall": 3989,
      "Ġokay": 3990,
      "Ġcele": 3991,
      "Ġthor": 3992,
      "Ġpieces": 3993,
      "illing": 3994,
      "Ġlovely": 3995,
      "Ġprim": 3996,
      "Ġflicks": 3997,
      "olic": 3998,
      "Ġindust": 3999,
      "down": 4000,
      "Ġtur": 4001,
      "oned": 4002,
      "ĠBecause": 4003,
      "ĠPol": 4004,
      "Ġlegend": 4005,
      "Ġwalking": 4006,
      "Ġbuilding": 4007,
      "Ġdrug": 4008,
      "Un": 4009,
      "ss": 4010,
      "ĠMus": 4011,
      "ĠJones": 4012,
      "Ġwilling": 4013,
      "Ġmainly": 4014,
      "Ġdescrib": 4015,
      "Ġzombies": 4016,
      "Now": 4017,
      "Ġfool": 4018,
      "Ġmat": 4019,
      "itor": 4020,
      "Ġhost": 4021,
      "Ġdubb": 4022,
      "see": 4023,
      "roc": 4024,
      "ĠMag": 4025,
      "Ġalien": 4026,
      "Ġspec": 4027,
      "Ġfalling": 4028,
      "Ġsteal": 4029,
      "uous": 4030,
      "Ġdim": 4031,
      "ĠMexic": 4032,
      "Ġfeelings": 4033,
      "ĠAngel": 4034,
      "win": 4035,
      "erk": 4036,
      "aly": 4037,
      "ĠChristopher": 4038,
      "Ġ60": 4039,
      "Ġdisgust": 4040,
      "Any": 4041,
      "heart": 4042,
      "itude": 4043,
      "owell": 4044,
      "ander": 4045,
      "Ġdisaster": 4046,
      "rama": 4047,
      "inese": 4048,
      "ned": 4049,
      "ini": 4050,
      "orter": 4051,
      "Ġshare": 4052,
      "Ġride": 4053,
      "Ġhappening": 4054,
      "Ġmotion": 4055,
      "Ġmelod": 4056,
      "pret": 4057,
      "ĠWhere": 4058,
      "ĠTwo": 4059,
      "Ġattractive": 4060,
      "Ġment": 4061,
      "ĠHam": 4062,
      "Ġsoldiers": 4063,
      "Ġnegative": 4064,
      "Ġjourney": 4065,
      "Ġforgotten": 4066,
      "LY": 4067,
      "icious": 4068,
      "ĠJerry": 4069,
      "Ġmerely": 4070,
      "Ġpassion": 4071,
      "Ġsight": 4072,
      "Ġfrustr": 4073,
      "Ġdetective": 4074,
      "gue": 4075,
      "anced": 4076,
      "Ġloose": 4077,
      "ĠLuc": 4078,
      "Ġproves": 4079,
      ".,": 4080,
      "IG": 4081,
      "ffe": 4082,
      "Ġ****": 4083,
      "irth": 4084,
      "ĠDay": 4085,
      "olution": 4086,
      "Ġjustice": 4087,
      "Ġunus": 4088,
      "Ġdrink": 4089,
      "Ġadults": 4090,
      "Ġindividual": 4091,
      "Ġcelebr": 4092,
      "ham": 4093,
      "life": 4094,
      "erous": 4095,
      "onna": 4096,
      "Ġdiv": 4097,
      "illed": 4098,
      "ĠVery": 4099,
      "Ġrip": 4100,
      "Ġsubst": 4101,
      "Ġchildhood": 4102,
      "ĠYoung": 4103,
      "Ġlaughed": 4104,
      "Ġunnecessary": 4105,
      "Ġfright": 4106,
      "entially": 4107,
      "ĠHit": 4108,
      "ĠFox": 4109,
      "Ġobject": 4110,
      "Ġready": 4111,
      "Ġhelps": 4112,
      "Ġapartment": 4113,
      "Ġbreath": 4114,
      "herent": 4115,
      "Ġfaces": 4116,
      "Ġcell": 4117,
      "Ġlength": 4118,
      "Ġgorge": 4119,
      "ural": 4120,
      "raid": 4121,
      "ĠRog": 4122,
      "osh": 4123,
      "pected": 4124,
      "Ġwondering": 4125,
      "Ġmarriage": 4126,
      "Ġbrothers": 4127,
      "Ġindepend": 4128,
      "ein": 4129,
      "Ġnons": 4130,
      "aylor": 4131,
      "sey": 4132,
      "dered": 4133,
      "gged": 4134,
      "Ġfollowed": 4135,
      "ĠJackson": 4136,
      "Ġirrit": 4137,
      "Ġachieve": 4138,
      "uit": 4139,
      "cture": 4140,
      "adow": 4141,
      "ĠST": 4142,
      "Ġchase": 4143,
      "Ġloves": 4144,
      "ĠStory": 4145,
      "Ġsmart": 4146,
      "Ġrecommended": 4147,
      "Ġinflu": 4148,
      "ĠHenry": 4149,
      "Ġthoroughly": 4150,
      "ourne": 4151,
      "Ġdrag": 4152,
      "ĠPhil": 4153,
      "Ġanswer": 4154,
      "Ġredeeming": 4155,
      "field": 4156,
      "aries": 4157,
      "riff": 4158,
      "ĠLyn": 4159,
      "Ġstudents": 4160,
      "undred": 4161,
      "now": 4162,
      "ica": 4163,
      "Ġclean": 4164,
      "Ġcurrent": 4165,
      "ops": 4166,
      "Ġconvers": 4167,
      "Ġord": 4168,
      "ĠCharles": 4169,
      "Ġproducer": 4170,
      "Ġplanet": 4171,
      "Ġsilent": 4172,
      ".'": 4173,
      "ĠDen": 4174,
      "Ġlover": 4175,
      "abl": 4176,
      "Ġoffers": 4177,
      "omething": 4178,
      "mi": 4179,
      "ĠX": 4180,
      "Ġtragic": 4181,
      "Ġtrailer": 4182,
      "Ġavailable": 4183,
      "gar": 4184,
      "Ġpaid": 4185,
      "ilities": 4186,
      "ĠHol": 4187,
      "Ġremote": 4188,
      "Ġprovides": 4189,
      "Ġdrugs": 4190,
      "ĠMartin": 4191,
      "hero": 4192,
      "Ġhig": 4193,
      "Ġonto": 4194,
      "Ġanymore": 4195,
      "Ġeverybody": 4196,
      "Ġrape": 4197,
      "ĠAnother": 4198,
      "ĠThough": 4199,
      "Ġmurders": 4200,
      "At": 4201,
      "lla": 4202,
      "Ġden": 4203,
      "Ġheld": 4204,
      "Ġasks": 4205,
      "ĠLittle": 4206,
      "ĠCarl": 4207,
      "ospital": 4208,
      "Ġcentral": 4209,
      "rough": 4210,
      "arry": 4211,
      "ĠTaylor": 4212,
      "soever": 4213,
      "ĠAmericans": 4214,
      "Ġhelped": 4215,
      "Ġstandards": 4216,
      "Ġdescribe": 4217,
      "sen": 4218,
      "year": 4219,
      "ĠMs": 4220,
      "ĠCo": 4221,
      "ache": 4222,
      "Ġcompar": 4223,
      "Ġputting": 4224,
      "Ġconfusing": 4225,
      "ken": 4226,
      "enge": 4227,
      "Ġhide": 4228,
      "ĠTar": 4229,
      "Ġdebut": 4230,
      "ĠLife": 4231,
      "Ġwhatsoever": 4232,
      "Ġturning": 4233,
      "Ġdeveloped": 4234,
      "AC": 4235,
      "Ar": 4236,
      "do": 4237,
      "gly": 4238,
      "Ġfiction": 4239,
      "Ġinformation": 4240,
      "leep": 4241,
      "ĠSpe": 4242,
      "ĠSec": 4243,
      "ounds": 4244,
      "Ġthank": 4245,
      "Ġknock": 4246,
      "Ġbits": 4247,
      "Ġrelationships": 4248,
      "Ġflaws": 4249,
      "Ġmediocre": 4250,
      "ift": 4251,
      "ĠJon": 4252,
      "osen": 4253,
      "awn": 4254,
      "ĠStephen": 4255,
      "Ġspectac": 4256,
      "Ġbottom": 4257,
      "Ġhundred": 4258,
      "Ġder": 4259,
      "aded": 4260,
      "ĠBas": 4261,
      "Ġgold": 4262,
      "Ġsurely": 4263,
      "Ġformula": 4264,
      "Ġstreng": 4265,
      "Ġwitness": 4266,
      "Ġmartial": 4267,
      "Ġgorgeous": 4268,
      "ita": 4269,
      "oted": 4270,
      "Ġstuck": 4271,
      "ĠWalk": 4272,
      "agger": 4273,
      "ĠNothing": 4274,
      "Ġlighting": 4275,
      "Ġcomedic": 4276,
      "Ġfellow": 4277,
      "Ġmulti": 4278,
      "ĠBruce": 4279,
      "Ġbase": 4280,
      "Ġnaked": 4281,
      "ĠBrian": 4282,
      "Ġvirt": 4283,
      "Ġ1950": 4284,
      "Ġahead": 4285,
      "Ġham": 4286,
      "Ġconflict": 4287,
      "ĠArthur": 4288,
      "Ġbelong": 4289,
      "Ġwide": 4290,
      "Ġflying": 4291,
      "itz": 4292,
      "Ġunreal": 4293,
      "Ġcentury": 4294,
      "ĠDark": 4295,
      "ĠRay": 4296,
      "Ġnoir": 4297,
      "Ġtrag": 4298,
      "Ġlocation": 4299,
      "writer": 4300,
      "Bl": 4301,
      "ios": 4302,
      "Ġthus": 4303,
      "ĠChinese": 4304,
      "Ġsubt": 4305,
      "Ġsymb": 4306,
      "Ġreminded": 4307,
      "No": 4308,
      "Ġmount": 4309,
      "With": 4310,
      "Ġhat": 4311,
      "Ġpen": 4312,
      "asing": 4313,
      "entious": 4314,
      "alled": 4315,
      ".....": 4316,
      "Ġunw": 4317,
      "Ġthanks": 4318,
      "Ġdisappe": 4319,
      "Ġbroad": 4320,
      "Ġallowed": 4321,
      "Ġperspect": 4322,
      "afe": 4323,
      "she": 4324,
      "Ġpath": 4325,
      "ĠApp": 4326,
      "ĠBilly": 4327,
      "ĠWin": 4328,
      "Ġprocess": 4329,
      "Ġpossess": 4330,
      "wolf": 4331,
      "Ġver": 4332,
      "Ġbank": 4333,
      "Ġthin": 4334,
      "asure": 4335,
      "ĠGl": 4336,
      "ĠNor": 4337,
      "Ġtrust": 4338,
      "Ġblond": 4339,
      "Ġsadly": 4340,
      "Ġoppos": 4341,
      "Ġdelivers": 4342,
      "Ġshocking": 4343,
      "Ġdiscover": 4344,
      "otes": 4345,
      "rog": 4346,
      "ĠON": 4347,
      "Ġappeared": 4348,
      "ĠWhite": 4349,
      "Ġexpert": 4350,
      "Ġfault": 4351,
      "Ġrepeated": 4352,
      "Ġunexpected": 4353,
      "Ġmember": 4354,
      "Ġner": 4355,
      "Ġnasty": 4356,
      "Ġnecessary": 4357,
      "Ġrated": 4358,
      "plot": 4359,
      "Ġanimal": 4360,
      "ech": 4361,
      "Ġaward": 4362,
      "Ġimpact": 4363,
      "Ġmemory": 4364,
      "ĠOnce": 4365,
      "Ġafraid": 4366,
      "Ġcollection": 4367,
      "what": 4368,
      "Ġreach": 4369,
      "ĠSar": 4370,
      "ĠPac": 4371,
      "ĠLes": 4372,
      "Ġ12": 4373,
      "ugs": 4374,
      "Ġrented": 4375,
      "Ġreminds": 4376,
      "Ġhonestly": 4377,
      "ET": 4378,
      "ency": 4379,
      "Ġholes": 4380,
      "ĠBoth": 4381,
      "empor": 4382,
      "ĠEy": 4383,
      "ĠBatman": 4384,
      "Ġneighbor": 4385,
      "John": 4386,
      "Ġdouble": 4387,
      "Ġgri": 4388,
      "Ġvir": 4389,
      "Ġcontext": 4390,
      "Ġspeaking": 4391,
      "Ġimagination": 4392,
      "Ġ1980": 4393,
      "board": 4394,
      "Ġfood": 4395,
      "Ġfac": 4396,
      "ĠCr": 4397,
      "Ġdoz": 4398,
      "Ġseconds": 4399,
      "Ġforever": 4400,
      "good": 4401,
      "miss": 4402,
      "Ġrelie": 4403,
      "ademy": 4404,
      "Ġdeb": 4405,
      "ĠJoan": 4406,
      "Ġaccom": 4407,
      "Ġcorrect": 4408,
      "Ġcontinue": 4409,
      "Ġencoun": 4410,
      "Ġcontrast": 4411,
      "mare": 4412,
      "Ġeat": 4413,
      "Ġfort": 4414,
      "ĠSee": 4415,
      "Ġquiet": 4416,
      "Ġunderst": 4417,
      "ivil": 4418,
      "azy": 4419,
      "Ġpicked": 4420,
      "Ġinspired": 4421,
      "Ġdamn": 4422,
      "Ġradio": 4423,
      "Ġfavourite": 4424,
      "IC": 4425,
      "ka": 4426,
      "requ": 4427,
      "Ġbot": 4428,
      "Ġanywhere": 4429,
      "ĠOverall": 4430,
      "Ġclub": 4431,
      "Ġknowledge": 4432,
      "Ġseemingly": 4433,
      "Ġresc": 4434,
      "Ġfinished": 4435,
      "Ġincludes": 4436,
      "Ġbecoming": 4437,
      "Ġresemb": 4438,
      "Ġprofessional": 4439,
      "Ġfunniest": 4440,
      "Ġsour": 4441,
      "arp": 4442,
      "illa": 4443,
      "Ġcrow": 4444,
      "Ġbelief": 4445,
      "Ġworthy": 4446,
      "Ġexplan": 4447,
      "Ġarts": 4448,
      "Ġdeeply": 4449,
      "Ġpleasure": 4450,
      "ropriate": 4451,
      "Americ": 4452,
      "Ġwise": 4453,
      "edding": 4454,
      "ĠDam": 4455,
      "ĠPres": 4456,
      "oses": 4457,
      "akespe": 4458,
      "kward": 4459,
      "Ġbene": 4460,
      "ĠIN": 4461,
      "ĠToo": 4462,
      "Ġlived": 4463,
      "ĠDu": 4464,
      "Ġactions": 4465,
      "Ġaware": 4466,
      "Ġcreative": 4467,
      ":<": 4468,
      "cient": 4469,
      "Ġkidn": 4470,
      "Ġbuff": 4471,
      "Ġvision": 4472,
      "Ġsupposedly": 4473,
      "Ġactresses": 4474,
      "Ġtechnical": 4475,
      "Ġstrength": 4476,
      "film": 4477,
      "mes": 4478,
      "Ġbur": 4479,
      "Ġpra": 4480,
      "ĠAc": 4481,
      "ĠWal": 4482,
      "Ġtext": 4483,
      "Ġhumans": 4484,
      "Ġrac": 4485,
      "ĠSteven": 4486,
      "Ġwooden": 4487,
      "SE": 4488,
      "ĠIr": 4489,
      "Ġbegan": 4490,
      "ĠTheir": 4491,
      "Ġblind": 4492,
      "Ġawkward": 4493,
      "Ġdesert": 4494,
      "Ġperform": 4495,
      "Ġslap": 4496,
      "Ġoccasion": 4497,
      "ĠJesus": 4498,
      "Ġenergy": 4499,
      "Ġunusual": 4500,
      "rance": 4501,
      "Ġdu": 4502,
      "Ġdying": 4503,
      "ĠMark": 4504,
      "Ġblock": 4505,
      "Ġgrow": 4506,
      "Ġcompare": 4507,
      "Ġemploy": 4508,
      "Ġwarm": 4509,
      "Ġintelligence": 4510,
      "Ġreligious": 4511,
      "hand": 4512,
      "inat": 4513,
      "lled": 4514,
      "Ġ11": 4515,
      "ĠVH": 4516,
      "Ġsmile": 4517,
      "Ġphone": 4518,
      "Ġscientist": 4519,
      "Ġmild": 4520,
      "Ġstation": 4521,
      "ateg": 4522,
      "ĠNever": 4523,
      "ĠEr": 4524,
      "aches": 4525,
      "ipul": 4526,
      "Ġfinding": 4527,
      "Ġdepart": 4528,
      "ĠRobin": 4529,
      "ĠEngland": 4530,
      "glas": 4531,
      "AY": 4532,
      "Ġoh": 4533,
      "Ġled": 4534,
      "Ġloving": 4535,
      "Ġagent": 4536,
      "apped": 4537,
      "entional": 4538,
      "Ġopera": 4539,
      "AL": 4540,
      "Sc": 4541,
      "bad": 4542,
      "Ġeight": 4543,
      "oos": 4544,
      "ĠBer": 4545,
      "ĠMore": 4546,
      "Ġship": 4547,
      "Ġrubb": 4548,
      "Ġtwice": 4549,
      "Ġtears": 4550,
      "ĠBlood": 4551,
      "Ġtragedy": 4552,
      "akespeare": 4553,
      "aa": 4554,
      "ube": 4555,
      "Ġweap": 4556,
      "Ġmanage": 4557,
      "Ġnews": 4558,
      "Ġconvin": 4559,
      "Ġdeserved": 4560,
      "Ġbreaks": 4561,
      "Ġholds": 4562,
      "orthy": 4563,
      "Ġindustry": 4564,
      "ĠHitler": 4565,
      "ek": 4566,
      "Ġbi": 4567,
      "Ġhospital": 4568,
      "ario": 4569,
      "Ġsepar": 4570,
      "Ġscared": 4571,
      "Ġpersonality": 4572,
      "Ġartistic": 4573,
      "Ġteenage": 4574,
      "ĠLynch": 4575,
      "abr": 4576,
      "anish": 4577,
      "Ġloss": 4578,
      "Ġchannel": 4579,
      "icked": 4580,
      "Ġbland": 4581,
      "ĠCGI": 4582,
      "eed": 4583,
      "hor": 4584,
      "action": 4585,
      "ĠNaz": 4586,
      "odies": 4587,
      "tered": 4588,
      "Ġprefer": 4589,
      "Ġrealized": 4590,
      "Ġtend": 4591,
      "Ġrace": 4592,
      "Ġsoldier": 4593,
      "Even": 4594,
      "Ġhint": 4595,
      "Ġna": 4596,
      "ĠSy": 4597,
      "ĠEdd": 4598,
      "away": 4599,
      "Ġhorse": 4600,
      "Ġshouldn": 4601,
      "Ġinstance": 4602,
      "ĠDavis": 4603,
      "rors": 4604,
      "Ġaim": 4605,
      "Ġsell": 4606,
      "ousy": 4607,
      "ooks": 4608,
      ".\"<": 4609,
      "Ġsuperior": 4610,
      "Ġangry": 4611,
      "rs": 4612,
      "Ġwond": 4613,
      "ĠNick": 4614,
      "ĠEll": 4615,
      "Ġlose": 4616,
      "ruction": 4617,
      "Ġvehic": 4618,
      "ĠclichÃ©s": 4619,
      "Ġstruggle": 4620,
      "Ġphysical": 4621,
      "Ġclothes": 4622,
      "director": 4623,
      "Ġcars": 4624,
      "Ġchurch": 4625,
      "Ġwanting": 4626,
      "Ġepic": 4627,
      "ording": 4628,
      "ovies": 4629,
      "lock": 4630,
      "reck": 4631,
      "Ġpacing": 4632,
      "Ġdesire": 4633,
      "Ġinsight": 4634,
      "ĠShow": 4635,
      "Ġadds": 4636,
      "Ġregret": 4637,
      "Ġprovide": 4638,
      "Ġrepresent": 4639,
      "Ġcrowd": 4640,
      "ium": 4641,
      "port": 4642,
      "uct": 4643,
      "Ġaside": 4644,
      "Ġboard": 4645,
      "aturally": 4646,
      "Ġengaging": 4647,
      "rous": 4648,
      "ĠSil": 4649,
      "ĠSus": 4650,
      "irk": 4651,
      "ĠBarb": 4652,
      "Ġremem": 4653,
      "rical": 4654,
      "ta": 4655,
      "esh": 4656,
      "Ġpress": 4657,
      "Ġpair": 4658,
      "Ġmoved": 4659,
      "Ġugly": 4660,
      "ĠWil": 4661,
      "uman": 4662,
      "Ġwatchable": 4663,
      "Ġpretentious": 4664,
      "Ġfriendship": 4665,
      "Ġremarkable": 4666,
      "sion": 4667,
      "Ġsch": 4668,
      "Ġla": 4669,
      "Ġdeg": 4670,
      "Ġimpl": 4671,
      "Ġblame": 4672,
      "Ġrelative": 4673,
      "ĠAND": 4674,
      "ras": 4675,
      "ĠWH": 4676,
      "Ġ13": 4677,
      "Ġtwenty": 4678,
      "Ġserv": 4679,
      "Ġcoun": 4680,
      "Ġvillains": 4681,
      "ĠDaniel": 4682,
      "Ġsignific": 4683,
      "Ġmagnific": 4684,
      "Ġindependent": 4685,
      "father": 4686,
      "Ġic": 4687,
      "Ġmental": 4688,
      "Ġbal": 4689,
      "Ġbright": 4690,
      "ashed": 4691,
      "unted": 4692,
      "ĠRoy": 4693,
      "terest": 4694,
      "Ġunderstanding": 4695,
      "Ġasked": 4696,
      "eper": 4697,
      "ilies": 4698,
      "imal": 4699,
      "Ġfinest": 4700,
      "ĠKeaton": 4701,
      "ĠAnyway": 4702,
      "vate": 4703,
      "Ġpet": 4704,
      "Ġgiant": 4705,
      "ĠAlan": 4706,
      "screen": 4707,
      "Although": 4708,
      "Ġdesperate": 4709,
      "Ġaccurate": 4710,
      "ĠDouglas": 4711,
      "ĠVHS": 4712,
      "alling": 4713,
      "ĠSci": 4714,
      "ĠFord": 4715,
      "ĠRus": 4716,
      "ogy": 4717,
      "bered": 4718,
      "there": 4719,
      "Ġcommentary": 4720,
      "ĠSanta": 4721,
      "Ġfreak": 4722,
      "Ġstock": 4723,
      "Ġplane": 4724,
      "Ġbrutal": 4725,
      "Ġsty": 4726,
      "ĠPlease": 4727,
      "ĠKid": 4728,
      "Ġowner": 4729,
      "Ġlimited": 4730,
      "Ġdelightful": 4731,
      "Ġintriguing": 4732,
      "kes": 4733,
      "stein": 4734,
      "ĠSl": 4735,
      "ĠSad": 4736,
      "Ġring": 4737,
      "ĠJose": 4738,
      "Ġanybody": 4739,
      "ueen": 4740,
      "Ġgrad": 4741,
      "Ġintellect": 4742,
      "Ġconstant": 4743,
      "Ġconcerned": 4744,
      "Ġnonsense": 4745,
      "Ġaccompl": 4746,
      "âĢ": 4747,
      "ators": 4748,
      "ĠAv": 4749,
      "ĠBond": 4750,
      "ĠWestern": 4751,
      "Ġaband": 4752,
      "Ġround": 4753,
      "ression": 4754,
      "Ġdeterm": 4755,
      "Ġcraft": 4756,
      "Ġuncon": 4757,
      "Ġmarket": 4758,
      "top": 4759,
      "Ġtoward": 4760,
      "ifer": 4761,
      "Ġju": 4762,
      "ĠLady": 4763,
      "Ġpersonally": 4764,
      "Ġbloody": 4765,
      "rifying": 4766,
      "ĠFreddy": 4767,
      "Ġcriminal": 4768,
      "Ġperspective": 4769,
      "200": 4770,
      "De": 4771,
      "Just": 4772,
      "Sp": 4773,
      "Ġing": 4774,
      "Ġchore": 4775,
      "ĠRon": 4776,
      "ĠJr": 4777,
      "ĠJason": 4778,
      "uddy": 4779,
      "ĠYe": 4780,
      "Ġwonderfully": 4781,
      "Ġlets": 4782,
      "arently": 4783,
      "looking": 4784,
      "Ġpilot": 4785,
      "Ġsafe": 4786,
      "Ġboo": 4787,
      "Ġbirth": 4788,
      "Ġscare": 4789,
      "Ġhadn": 4790,
      "Ġgrowing": 4791,
      "ĠShakespeare": 4792,
      "Ġcreature": 4793,
      "Ġregular": 4794,
      "Ġflashbacks": 4795,
      "Ġbehavior": 4796,
      "Ġcateg": 4797,
      "Ġhidden": 4798,
      "Ġstink": 4799,
      "ĠHall": 4800,
      "ĠLi": 4801,
      "pless": 4802,
      "Ġgotten": 4803,
      "Ġempt": 4804,
      "Ġlisten": 4805,
      "Ġpsychological": 4806,
      "Ġpriest": 4807,
      "Ġ?": 4808,
      "Ġted": 4809,
      "Ġopt": 4810,
      "ĠOli": 4811,
      "Ġincre": 4812,
      "olds": 4813,
      "Ġinterpret": 4814,
      "Ġtorture": 4815,
      "oons": 4816,
      "umps": 4817,
      "aud": 4818,
      "Ġmanipul": 4819,
      "ĠBrother": 4820,
      "Ġtransl": 4821,
      "Ġissue": 4822,
      "Ġexplanation": 4823,
      "Ġrubbish": 4824,
      "bian": 4825,
      "nam": 4826,
      "Ġtar": 4827,
      "Ġhated": 4828,
      "Ġhyp": 4829,
      "anet": 4830,
      "entle": 4831,
      "Ġsearch": 4832,
      "esty": 4833,
      "teen": 4834,
      "Ġlacking": 4835,
      "Ġdangerous": 4836,
      "Ġfield": 4837,
      "atory": 4838,
      "Ġcharism": 4839,
      "Ġrarely": 4840,
      "Ġaccount": 4841,
      "Ġmemories": 4842,
      "Ġheroes": 4843,
      "ĠMcC": 4844,
      "ashington": 4845,
      "cra": 4846,
      "hol": 4847,
      "Ġban": 4848,
      "Ġthous": 4849,
      "Ġhurt": 4850,
      "Ġlay": 4851,
      "Ġseven": 4852,
      "Ġsuicide": 4853,
      "ĠRom": 4854,
      "Ġarmy": 4855,
      "Ġrealism": 4856,
      "Ġexplos": 4857,
      "Ġeduc": 4858,
      "Ġelect": 4859,
      "Ġfeaturing": 4860,
      "ĠEverything": 4861,
      "Ġpulled": 4862,
      "Ġ1970": 4863,
      "ĠColumb": 4864,
      "Ġcommunity": 4865,
      "oom": 4866,
      "Ġsac": 4867,
      "Ġfate": 4868,
      "Ġcal": 4869,
      "Ġwearing": 4870,
      "ĠDid": 4871,
      "Ġpartner": 4872,
      "Ġincomp": 4873,
      "Ġkinda": 4874,
      "Ġexplained": 4875,
      "Ġheads": 4876,
      "Ġphil": 4877,
      "ĠDanny": 4878,
      "Ġwinning": 4879,
      "Ġhook": 4880,
      "ading": 4881,
      "Ġstret": 4882,
      "Ġsucks": 4883,
      "Ġunknown": 4884,
      "Ġdeserve": 4885,
      "Ġmotiv": 4886,
      "Also": 4887,
      "ĠStreet": 4888,
      "ĠWayne": 4889,
      "Ġcomparison": 4890,
      ");": 4891,
      ")<": 4892,
      "orious": 4893,
      "Ġgrew": 4894,
      "ĠHel": 4895,
      "eman": 4896,
      "ĠDO": 4897,
      "asts": 4898,
      "ĠJud": 4899,
      "Ġproceed": 4900,
      "Ġtherefore": 4901,
      "Ġdisp": 4902,
      "resses": 4903,
      "Ġincluded": 4904,
      "Ġcuts": 4905,
      "Ġwoods": 4906,
      "Ġresponsible": 4907,
      "Ġtour": 4908,
      "ĠREA": 4909,
      "Ġcreating": 4910,
      "Ġimagin": 4911,
      "Ġfilmmaker": 4912,
      "point": 4913,
      "Ġfrequ": 4914,
      "Ġcable": 4915,
      "Ġdated": 4916,
      "asp": 4917,
      "sell": 4918,
      "ĠEast": 4919,
      "Ġsurreal": 4920,
      "Ġsurprising": 4921,
      "Ġskills": 4922,
      "ĠWelles": 4923,
      "ĠEddie": 4924,
      "TV": 4925,
      "omen": 4926,
      "ads": 4927,
      "ĠWashington": 4928,
      "ĠJess": 4929,
      "ometimes": 4930,
      "Ġkeeping": 4931,
      "ĠMany": 4932,
      "ĠEuropean": 4933,
      "ĠSuperman": 4934,
      "rays": 4935,
      "xual": 4936,
      "ilst": 4937,
      "Ġmob": 4938,
      "ooper": 4939,
      "Ġgrat": 4940,
      "Ġpassed": 4941,
      "Ġefforts": 4942,
      "Ġstructure": 4943,
      "Ġmixed": 4944,
      "Ġintroduced": 4945,
      "ĠRussian": 4946,
      "Ġsymbol": 4947,
      "RI": 4948,
      "zan": 4949,
      "Ġmut": 4950,
      "Ġgru": 4951,
      "cked": 4952,
      "ĠStr": 4953,
      "Ġcolour": 4954,
      "Ġcapture": 4955,
      "Ġresults": 4956,
      "Ġtreated": 4957,
      "Ġreferences": 4958,
      "isk": 4959,
      "especially": 4960,
      "oring": 4961,
      "ĠSince": 4962,
      "ĠLind": 4963,
      "Ġarm": 4964,
      "Ġfamilies": 4965,
      "Ġcameo": 4966,
      "Ġnumerous": 4967,
      "Ġprotect": 4968,
      "Ġtheatre": 4969,
      "ĠSimon": 4970,
      "Ġwindow": 4971,
      "alloween": 4972,
      "Ġsaved": 4973,
      "AM": 4974,
      "UT": 4975,
      "cis": 4976,
      "Ġmine": 4977,
      "Ġgames": 4978,
      "Ġnet": 4979,
      "imental": 4980,
      "idge": 4981,
      "Ġnoticed": 4982,
      "acc": 4983,
      "Ġenth": 4984,
      "ĠZomb": 4985,
      "Ġskin": 4986,
      "Ġdreadful": 4987,
      "gent": 4988,
      "iance": 4989,
      "Ġdry": 4990,
      "Ġarea": 4991,
      "ĠRy": 4992,
      "vit": 4993,
      "Ġcard": 4994,
      "Ġpark": 4995,
      "stal": 4996,
      "aybe": 4997,
      "Ġforces": 4998,
      "ĠBourne": 4999,
      "Ġlies": 5000,
      "ĠLord": 5001,
      "Ġfloor": 5002,
      "ENT": 5003,
      "iverse": 5004,
      "Ġrelief": 5005,
      "hester": 5006,
      "Ġfu": 5007,
      "ĠSid": 5008,
      "Ġframe": 5009,
      "ĠLaw": 5010,
      "Ġrul": 5011,
      "ĠGill": 5012,
      "ĠGene": 5013,
      "Ġblue": 5014,
      "ĠVal": 5015,
      "Ġcalls": 5016,
      "Ġborn": 5017,
      "Ġmurdered": 5018,
      "Ġhumanity": 5019,
      "Ġcops": 5020,
      "Ġhumorous": 5021,
      "Ġforeign": 5022,
      "Ġguns": 5023,
      "Ġgags": 5024,
      "inatra": 5025,
      "cise": 5026,
      "ĠRam": 5027,
      "osaur": 5028,
      "abe": 5029,
      "ensional": 5030,
      "ewis": 5031,
      "oken": 5032,
      "Ġnicely": 5033,
      "Ġhopes": 5034,
      "ĠAfrican": 5035,
      "Ġmonths": 5036,
      "EL": 5037,
      "yer": 5038,
      "Ġtight": 5039,
      "Ġdi": 5040,
      "othy": 5041,
      "ĠJew": 5042,
      "soci": 5043,
      "Ġcrappy": 5044,
      "Ġcorrupt": 5045,
      "Ġcircum": 5046,
      "OP": 5047,
      "nie": 5048,
      "Ġpu": 5049,
      "Ġorgan": 5050,
      "Ġens": 5051,
      "luding": 5052,
      "anned": 5053,
      "Ġassist": 5054,
      "ĠSpace": 5055,
      "American": 5056,
      "Ġtarget": 5057,
      "fl": 5058,
      "tw": 5059,
      "lle": 5060,
      "ĠMike": 5061,
      "Ġunable": 5062,
      "They": 5063,
      "Ġremain": 5064,
      "Ġgrown": 5065,
      "ivity": 5066,
      "arner": 5067,
      "Ġfights": 5068,
      "Ġfailure": 5069,
      "Ġadvice": 5070,
      "Ġparody": 5071,
      "Ġreceived": 5072,
      "made": 5073,
      "ores": 5074,
      "hered": 5075,
      "ĠHell": 5076,
      "Ġprove": 5077,
      "Ġplayers": 5078,
      "Ġdecade": 5079,
      "Ġheroine": 5080,
      "Ġreturns": 5081,
      "Ġunfunny": 5082,
      "Ġsurvive": 5083,
      "arc": 5084,
      "Ġearn": 5085,
      "Ġfrank": 5086,
      "ĠPowell": 5087,
      "Ġdeals": 5088,
      "ivered": 5089,
      "Then": 5090,
      "Ġdesp": 5091,
      "ordon": 5092,
      "ĠTHIS": 5093,
      "Ġreviewers": 5094,
      "Ġjudge": 5095,
      "Ġtor": 5096,
      "atives": 5097,
      "Ġcow": 5098,
      "ĠCam": 5099,
      "Ġchick": 5100,
      "ulf": 5101,
      "ĠLau": 5102,
      "arded": 5103,
      "Ġconfront": 5104,
      "Ġemotionally": 5105,
      "However": 5106,
      "Ġsegment": 5107,
      "Ġnaive": 5108,
      "oh": 5109,
      "Ġsake": 5110,
      "star": 5111,
      "ĠMi": 5112,
      "Ġwealth": 5113,
      "ĠColl": 5114,
      "iful": 5115,
      "unn": 5116,
      "theless": 5117,
      "Ġterribly": 5118,
      "ĠJohnny": 5119,
      "Ġvisit": 5120,
      "ĠIsland": 5121,
      "Ġbelow": 5122,
      "Ġmodel": 5123,
      "Ġvampire": 5124,
      "OK": 5125,
      "Re": 5126,
      "done": 5127,
      "mble": 5128,
      "Ġbath": 5129,
      "Ġhur": 5130,
      "Ġlab": 5131,
      "roll": 5132,
      "ribut": 5133,
      "unter": 5134,
      "Ġaltern": 5135,
      "ups": 5136,
      "Ġmonsters": 5137,
      "Rob": 5138,
      "Ġhall": 5139,
      "ĠIm": 5140,
      "Ġgoof": 5141,
      "Ġthats": 5142,
      "entions": 5143,
      "Ġuncom": 5144,
      "Ġlogic": 5145,
      "ĠKong": 5146,
      "ruct": 5147,
      "ĠHoward": 5148,
      "Ġmission": 5149,
      "Ġreflect": 5150,
      "ĠEveryone": 5151,
      "Ġinept": 5152,
      "Ġroutine": 5153,
      "ker": 5154,
      "Ġinex": 5155,
      "ĠHay": 5156,
      "Ġsomebody": 5157,
      "ĠKate": 5158,
      "anged": 5159,
      "ails": 5160,
      "Ġtalents": 5161,
      "Ġcontinues": 5162,
      "Ġdiscovers": 5163,
      "Ġexploitation": 5164,
      "Of": 5165,
      "Ġhits": 5166,
      "Ġvul": 5167,
      "ummer": 5168,
      "Ġmarvel": 5169,
      "Ġstudy": 5170,
      "Ġlocations": 5171,
      "Ġscreaming": 5172,
      "Ġprotagonist": 5173,
      "Ġirritating": 5174,
      "ÂĹ": 5175,
      "rix": 5176,
      "Ġallows": 5177,
      "ĠWhich": 5178,
      "Ġboat": 5179,
      "finitely": 5180,
      "Ġsinger": 5181,
      "Ġmarry": 5182,
      "Ġgenuinely": 5183,
      "ĠLouis": 5184,
      "50": 5185,
      "Yes": 5186,
      "Ġwitch": 5187,
      "Ġgross": 5188,
      "Ġnomin": 5189,
      "Ġbear": 5190,
      "ĠCat": 5191,
      "Ġsoap": 5192,
      "usive": 5193,
      "ushing": 5194,
      "osition": 5195,
      "Ġproved": 5196,
      "ĠYOU": 5197,
      "Ġstarting": 5198,
      "Ġevidence": 5199,
      "Ġinsane": 5200,
      "Ġcares": 5201,
      "Ġvisuals": 5202,
      "Ġrevealed": 5203,
      "Ġladies": 5204,
      "ait": 5205,
      "bur": 5206,
      "spe": 5207,
      "Ġtick": 5208,
      "Ġpit": 5209,
      "ication": 5210,
      "ĠTe": 5211,
      "urity": 5212,
      "ĠDel": 5213,
      "agers": 5214,
      "thony": 5215,
      "ĠRain": 5216,
      "ĠEric": 5217,
      "ĠOut": 5218,
      "Ġspeed": 5219,
      "Ġdelivered": 5220,
      "ĠDeath": 5221,
      "Ġhotel": 5222,
      "Ġexecuted": 5223,
      "ĠAfrica": 5224,
      "ĠHarris": 5225,
      "ĠTrek": 5226,
      "Ġunconv": 5227,
      "ja": 5228,
      "whel": 5229,
      "Ġsal": 5230,
      "Ġfal": 5231,
      "Ġmyth": 5232,
      "Ġplayer": 5233,
      "Ġspeech": 5234,
      "Ġopens": 5235,
      "Ġassume": 5236,
      "Ġbrilliantly": 5237,
      "Ġlearned": 5238,
      "Ġsummer": 5239,
      "hent": 5240,
      "Ġge": 5241,
      "ĠHad": 5242,
      "Ġprint": 5243,
      "Ġcompan": 5244,
      "Ġfinale": 5245,
      "Ġrelate": 5246,
      "ĠThom": 5247,
      "Ġwarning": 5248,
      "Ġportraying": 5249,
      "ĠSean": 5250,
      "Ġsatire": 5251,
      "Ġasking": 5252,
      "Ġtechnology": 5253,
      "Ġdiscovered": 5254,
      "Why": 5255,
      "uh": 5256,
      "Ġfle": 5257,
      "Ġgonna": 5258,
      "iro": 5259,
      "Ġshallow": 5260,
      "ĠRod": 5261,
      "ĠAndy": 5262,
      "Ġrecall": 5263,
      "ĠTHAT": 5264,
      "ĠFrancis": 5265,
      "POILERS": 5266,
      "emporary": 5267,
      "ĠAcademy": 5268,
      "Ġmagnificent": 5269,
      "OL": 5270,
      "Pl": 5271,
      "pir": 5272,
      "Ġgreen": 5273,
      "ĠSH": 5274,
      "Ġvac": 5275,
      "Ġobsc": 5276,
      "Ġdepict": 5277,
      "Ġmedia": 5278,
      "Ġcaptured": 5279,
      "ĠMorgan": 5280,
      "Ġmachine": 5281,
      "ĠDespite": 5282,
      "Ġopposite": 5283,
      "Ġphilos": 5284,
      "Ġcircumst": 5285,
      "enny": 5286,
      "Ġancient": 5287,
      "ĠCarr": 5288,
      "ĠHart": 5289,
      "Ġchosen": 5290,
      "aret": 5291,
      "Ġoriginally": 5292,
      "Ġentertained": 5293,
      "Ġvisually": 5294,
      "ĠMarie": 5295,
      "Ġgrace": 5296,
      "Ġcontrovers": 5297,
      "Ġcurious": 5298,
      "Ġcruel": 5299,
      "Ġstopped": 5300,
      "fortable": 5301,
      "Ġhigher": 5302,
      "Ġremembered": 5303,
      "Ġempty": 5304,
      "RA": 5305,
      "Ġsin": 5306,
      "Ġinh": 5307,
      "Ġreun": 5308,
      "raction": 5309,
      "ĠWhe": 5310,
      "Ġlovers": 5311,
      "urns": 5312,
      "ĠViet": 5313,
      "Ġstanding": 5314,
      "Ġmajority": 5315,
      "!).": 5316,
      "core": 5317,
      "cock": 5318,
      "some": 5319,
      "Ġsed": 5320,
      "Ġfict": 5321,
      "asm": 5322,
      "Ġredu": 5323,
      "amily": 5324,
      "ĠCass": 5325,
      "Ġleader": 5326,
      "ĠSpanish": 5327,
      "Ġloses": 5328,
      "nox": 5329,
      "oly": 5330,
      "vy": 5331,
      "Ġwitty": 5332,
      "ano": 5333,
      "ashes": 5334,
      "stream": 5335,
      "sec": 5336,
      "Ġscar": 5337,
      "Ġvoices": 5338,
      "Ġconvey": 5339,
      "Ġdecision": 5340,
      "Ġversions": 5341,
      "Ġdealing": 5342,
      "Ġcosts": 5343,
      "Ġpleasant": 5344,
      "Ġcontrived": 5345,
      "Â´": 5346,
      "Ġemer": 5347,
      "stit": 5348,
      "rocious": 5349,
      "Ġsole": 5350,
      "ĠBroad": 5351,
      "Ġordinary": 5352,
      "ga": 5353,
      "telling": 5354,
      "Ġwedding": 5355,
      "Ġpowers": 5356,
      "Ġdressed": 5357,
      "Ġgory": 5358,
      "ĠThing": 5359,
      "Ġassoci": 5360,
      "ĠSinatra": 5361,
      "Ġpeace": 5362,
      "Ġbelieves": 5363,
      "ĠBrown": 5364,
      "ĠAsh": 5365,
      "Ġedited": 5366,
      "Ġdistract": 5367,
      "Ġbringing": 5368,
      "Ġappealing": 5369,
      "Ġlosing": 5370,
      "Ġstereotypes": 5371,
      "hearted": 5372,
      "hentic": 5373,
      "ILL": 5374,
      "ault": 5375,
      "law": 5376,
      "irm": 5377,
      "ĠMal": 5378,
      "uns": 5379,
      "Ġscrew": 5380,
      "Ġsoph": 5381,
      "ĠJenn": 5382,
      "ĠNO": 5383,
      "Ġarch": 5384,
      "they": 5385,
      "Ġbigger": 5386,
      "Ġcourt": 5387,
      "Ġsyn": 5388,
      "Ġveter": 5389,
      "Ġultimate": 5390,
      "viron": 5391,
      "Ġpunch": 5392,
      "omer": 5393,
      "stick": 5394,
      "chy": 5395,
      "Ġsemi": 5396,
      "ĠCast": 5397,
      "ulous": 5398,
      "Ġjunk": 5399,
      "Ġtroub": 5400,
      "Ġrefres": 5401,
      "ĠPrince": 5402,
      "ĠAnton": 5403,
      "Ġsympathetic": 5404,
      "bell": 5405,
      "ls": 5406,
      "lim": 5407,
      "mat": 5408,
      "Ġfare": 5409,
      "Ġharsh": 5410,
      "although": 5411,
      "etic": 5412,
      "Ġjail": 5413,
      "ĠAndrew": 5414,
      "viously": 5415,
      "phas": 5416,
      "Ġpainfully": 5417,
      "Ġpopul": 5418,
      "Ġuncle": 5419,
      "ĠJimmy": 5420,
      "reedom": 5421,
      "Ġqualities": 5422,
      "Ġsubtit": 5423,
      "Ġconvinced": 5424,
      "Ġvehicle": 5425,
      "Every": 5426,
      "don": 5427,
      "mother": 5428,
      "Ġchose": 5429,
      "ĠDar": 5430,
      "ĠFrance": 5431,
      "ques": 5432,
      "ĠAnne": 5433,
      "Ġlesson": 5434,
      "Ġexcited": 5435,
      "Ġassass": 5436,
      "Ġlearns": 5437,
      "Ġamateurish": 5438,
      "Ġspectacular": 5439,
      "Ġcab": 5440,
      "Ġinner": 5441,
      "icate": 5442,
      "oting": 5443,
      "Ġstalk": 5444,
      "ether": 5445,
      "hern": 5446,
      "Ġatrocious": 5447,
      "Ġvan": 5448,
      "ĠGary": 5449,
      "Ġfeet": 5450,
      "Ġ14": 5451,
      "Ġmini": 5452,
      "ĠUK": 5453,
      "Ġmiser": 5454,
      "ĠGrant": 5455,
      "Ġinspir": 5456,
      "Ġsatisfying": 5457,
      "Ġgraphic": 5458,
      "ĠJoseph": 5459,
      ",'": 5460,
      "gn": 5461,
      "pass": 5462,
      "Ġtack": 5463,
      "Ġbond": 5464,
      "ĠMen": 5465,
      "ĠDor": 5466,
      "Ġking": 5467,
      "Ġran": 5468,
      "ummy": 5469,
      "Ġadvert": 5470,
      "Ġdisplay": 5471,
      "Ġtraining": 5472,
      "Ġhandled": 5473,
      "ennis": 5474,
      "ĠKevin": 5475,
      "Ġcapital": 5476,
      "Let": 5477,
      "ae": 5478,
      "ĠTy": 5479,
      "ĠHaw": 5480,
      "ĠWas": 5481,
      "ĠWars": 5482,
      "Ġkiss": 5483,
      "ĠEVER": 5484,
      "ĠOver": 5485,
      "Ġconsist": 5486,
      "Ġtalks": 5487,
      "Ġskill": 5488,
      "Ġdriving": 5489,
      "Ġreligion": 5490,
      "Ġdollars": 5491,
      "teresting": 5492,
      "natural": 5493,
      "Ġcivil": 5494,
      "ilogy": 5495,
      "Ġreject": 5496,
      "ĠMont": 5497,
      "Ġarg": 5498,
      "Another": 5499,
      "Ġconnect": 5500,
      "ĠBarry": 5501,
      "ĠHorror": 5502,
      "fit": 5503,
      "ooth": 5504,
      "Ġtem": 5505,
      "isc": 5506,
      "Ġfund": 5507,
      "Ġfestival": 5508,
      "Ġbag": 5509,
      "Ġcash": 5510,
      "espite": 5511,
      "iforn": 5512,
      "ĠFull": 5513,
      "Ġrange": 5514,
      "Ġsports": 5515,
      "Ġprinc": 5516,
      "Ġreviewer": 5517,
      "Ġcorny": 5518,
      "Ġbroken": 5519,
      "Ġconnection": 5520,
      "Ġembarrassing": 5521,
      "Ġsucked": 5522,
      "UR": 5523,
      "ym": 5524,
      "Ġtape": 5525,
      "itement": 5526,
      "lly": 5527,
      "ari": 5528,
      "ĠDog": 5529,
      "ĠPar": 5530,
      "ĠEv": 5531,
      "Ġsheer": 5532,
      "Ġenviron": 5533,
      "aturday": 5534,
      "Ġlevels": 5535,
      "Ġtypes": 5536,
      "Ġclaims": 5537,
      "Ġestabl": 5538,
      "II": 5539,
      "iser": 5540,
      "Ġfif": 5541,
      "Ġda": 5542,
      "ĠTri": 5543,
      "ĠTime": 5544,
      "ĠTex": 5545,
      "ament": 5546,
      "ĠDrew": 5547,
      "ĠEve": 5548,
      "Ġexperien": 5549,
      "ĠGermany": 5550,
      "Ġhandsome": 5551,
      "Ġspeaks": 5552,
      "Ġgangster": 5553,
      "agh": 5554,
      "ked": 5555,
      "Ġles": 5556,
      "Ġ/>-": 5557,
      "uther": 5558,
      "Ġrevel": 5559,
      "ĠMir": 5560,
      "ĠCent": 5561,
      "ĠCage": 5562,
      "beat": 5563,
      "Ġbuilt": 5564,
      "Ġcreates": 5565,
      "Ġcombination": 5566,
      "Ġnormally": 5567,
      "Ġauthentic": 5568,
      "Ġ1930": 5569,
      "ĠAgain": 5570,
      "ĠCanadian": 5571,
      "Ste": 5572,
      "mary": 5573,
      "ser": 5574,
      "ule": 5575,
      "walk": 5576,
      "Ġcyn": 5577,
      "iling": 5578,
      "ĠSan": 5579,
      "Ġshop": 5580,
      "Ġvol": 5581,
      "ĠLook": 5582,
      "Ġnecess": 5583,
      "ĠFe": 5584,
      "ums": 5585,
      "Ġendless": 5586,
      "oster": 5587,
      "Ġflesh": 5588,
      "ĠAlbert": 5589,
      "airs": 5590,
      "ĠUnivers": 5591,
      "Ġseasons": 5592,
      "Ġmeeting": 5593,
      "Ġhanging": 5594,
      "Ġtraditional": 5595,
      "ued": 5596,
      "ww": 5597,
      "yal": 5598,
      "za": 5599,
      "Ġhol": 5600,
      "ĠMoon": 5601,
      "ĠKh": 5602,
      "Ġoverly": 5603,
      "ĠLeon": 5604,
      "Ġcenter": 5605,
      "Ġforgettable": 5606,
      "Ġruin": 5607,
      "Ġsuffering": 5608,
      "Ġmurdere": 5609,
      "ĠRussell": 5610,
      "Ġfalse": 5611,
      "She": 5612,
      "ugg": 5613,
      "vol": 5614,
      "Ġfame": 5615,
      "Ġlower": 5616,
      "kend": 5617,
      "ĠALL": 5618,
      "ĠCapt": 5619,
      "ĠGirl": 5620,
      "ĠGordon": 5621,
      "Ġspell": 5622,
      "Ġemphas": 5623,
      "Ġappropriate": 5624,
      "Ġaccents": 5625,
      "Ġexcess": 5626,
      "Ġstrongly": 5627,
      "Ġsword": 5628,
      "Ġreaction": 5629,
      "Ġdubbed": 5630,
      "ĠPacino": 5631,
      "ifornia": 5632,
      "rate": 5633,
      "Ġfly": 5634,
      "Ġharm": 5635,
      "Ġlousy": 5636,
      "chan": 5637,
      "outs": 5638,
      "acting": 5639,
      "Ġmaint": 5640,
      "???": 5641,
      "Ġsteals": 5642,
      "Ġtreatment": 5643,
      "Ġexistence": 5644,
      "Ġdescribed": 5645,
      "Ġrefreshing": 5646,
      "dom": 5647,
      "Ġpaper": 5648,
      "ama": 5649,
      "ĠSE": 5650,
      "ĠEs": 5651,
      "ĠKenn": 5652,
      "Ġspin": 5653,
      "Ġunderrated": 5654,
      "ĠBrad": 5655,
      "ĠAnthony": 5656,
      "Ġdepressing": 5657,
      "Ġzero": 5658,
      "Ġunlikely": 5659,
      "Ġblonde": 5660,
      "From": 5661,
      "ban": 5662,
      "long": 5663,
      "rie": 5664,
      "Ġ#": 5665,
      "Ġbre": 5666,
      "ĠTer": 5667,
      "Ġasleep": 5668,
      "ĠHalloween": 5669,
      "olph": 5670,
      "ĠStone": 5671,
      "ĠAsian": 5672,
      "ĠArt": 5673,
      "ĠPlus": 5674,
      "Ġtheatrical": 5675,
      "Ġoccasional": 5676,
      "IGH": 5677,
      "uitous": 5678,
      "ba": 5679,
      "tr": 5680,
      "Ġsite": 5681,
      "Ġ/>*": 5682,
      "Ġsend": 5683,
      "ĠWr": 5684,
      "Ġunint": 5685,
      "ĠAnderson": 5686,
      "Ġteach": 5687,
      "ĠVer": 5688,
      "Ġcastle": 5689,
      "Ġeffectively": 5690,
      "Ġstrang": 5691,
      "incent": 5692,
      "Ġinvolves": 5693,
      "Ġcategory": 5694,
      "taking": 5695,
      "ye": 5696,
      "Ġsun": 5697,
      "Ġgig": 5698,
      "ĠBet": 5699,
      "Ġplans": 5700,
      "usi": 5701,
      "elle": 5702,
      "Ġende": 5703,
      "Ġsequels": 5704,
      "Ġshocked": 5705,
      "Ġessentially": 5706,
      "Ġidentity": 5707,
      "buster": 5708,
      "Ġ)": 5709,
      "Ġsaving": 5710,
      "omed": 5711,
      "ilty": 5712,
      "ada": 5713,
      "Ġsear": 5714,
      "Ġvague": 5715,
      "Ġneat": 5716,
      "ĠGar": 5717,
      "orted": 5718,
      "aren": 5719,
      "Ġoffensive": 5720,
      "Ġfacts": 5721,
      "Ġproduce": 5722,
      "Ġinvent": 5723,
      "ĠThose": 5724,
      "Ġexcitement": 5725,
      "Ġdeaths": 5726,
      "Ġpainting": 5727,
      "loved": 5728,
      "Ġexpression": 5729,
      "Ġrevolution": 5730,
      "Arthur": 5731,
      "sm": 5732,
      "inis": 5733,
      "ĠAre": 5734,
      "Ġwear": 5735,
      "ĠHill": 5736,
      "ĠLong": 5737,
      "ĠKim": 5738,
      "ĠStates": 5739,
      "Ġtrib": 5740,
      "Ġpolic": 5741,
      "Ġresearch": 5742,
      "Ġcapable": 5743,
      "mind": 5744,
      "upt": 5745,
      "Ġbon": 5746,
      "Ġrend": 5747,
      "Ġchoose": 5748,
      "ĠLast": 5749,
      "ĠJan": 5750,
      "ĠNic": 5751,
      "udic": 5752,
      "Ġparticip": 5753,
      "Ġcontract": 5754,
      "Ġemp": 5755,
      "Ġlaughter": 5756,
      "Ġwalks": 5757,
      "Ġfootball": 5758,
      "Ġcomplain": 5759,
      "Ġprior": 5760,
      "Ġhyster": 5761,
      "Ġintellectual": 5762,
      "BO": 5763,
      "yes": 5764,
      "rehen": 5765,
      "ĠAust": 5766,
      "Ġsharp": 5767,
      "formed": 5768,
      "Ġportrays": 5769,
      "ĠBeat": 5770,
      "Ġcolors": 5771,
      "Ġstreets": 5772,
      "Ġstayed": 5773,
      "Ġofficer": 5774,
      "Cl": 5775,
      "Mar": 5776,
      "isher": 5777,
      "eness": 5778,
      "Ġnin": 5779,
      "ĠMax": 5780,
      "ĠCinem": 5781,
      "ĠWor": 5782,
      "ĠFre": 5783,
      "Ġrise": 5784,
      "ichol": 5785,
      "ĠVER": 5786,
      "Ġlistening": 5787,
      "Ġvillage": 5788,
      "Ġweeks": 5789,
      "Who": 5790,
      "Ġinitial": 5791,
      "GM": 5792,
      "Ġdrop": 5793,
      "ĠSky": 5794,
      "Ġseat": 5795,
      "Ġwhenever": 5796,
      "Ġyeah": 5797,
      "Ġattitude": 5798,
      "Ġinvolve": 5799,
      "Ġpulls": 5800,
      "Ġtheaters": 5801,
      "ĠLuke": 5802,
      "Ġinevit": 5803,
      "Ġdisgusting": 5804,
      "Ġfrankly": 5805,
      "ĠThomas": 5806,
      "pet": 5807,
      "erie": 5808,
      "Ġbore": 5809,
      "ĠTed": 5810,
      "ĠAst": 5811,
      "Ġsection": 5812,
      "ĠWat": 5813,
      "ĠNorth": 5814,
      "orting": 5815,
      "Ġtrilogy": 5816,
      "ella": 5817,
      "apes": 5818,
      "ĠMrs": 5819,
      "Ġmeth": 5820,
      "Ġaccidentally": 5821,
      "ĠParker": 5822,
      "Ġsubstance": 5823,
      "Ġunrealistic": 5824,
      "ij": 5825,
      "nal": 5826,
      "och": 5827,
      "ndo": 5828,
      "Ġbodies": 5829,
      "Ġpal": 5830,
      "Ġlone": 5831,
      "Ġheaven": 5832,
      "ĠHitch": 5833,
      "udes": 5834,
      "Ġevening": 5835,
      "ĠAnna": 5836,
      "including": 5837,
      "ynam": 5838,
      "197": 5839,
      "Ġspoilers": 5840,
      "ĠWoody": 5841,
      "Ġlucky": 5842,
      "ĠAustralian": 5843,
      "ĠBroadway": 5844,
      "Ġtill": 5845,
      "Ġtable": 5846,
      "Ġludic": 5847,
      "ogether": 5848,
      "Ġproud": 5849,
      "Ġthoughts": 5850,
      "Ġsitcom": 5851,
      "Ġcombined": 5852,
      "ĠPatrick": 5853,
      "ausible": 5854,
      "Ġchalleng": 5855,
      "Ġgratuitous": 5856,
      "Ġfictional": 5857,
      "cause": 5858,
      "via": 5859,
      "ville": 5860,
      "otion": 5861,
      "ĠTO": 5862,
      "ĠMaster": 5863,
      "ĠLater": 5864,
      "Ġcann": 5865,
      "Ġages": 5866,
      "ressive": 5867,
      "Ġserves": 5868,
      "ĠClark": 5869,
      "Ġprovided": 5870,
      "Ġpromise": 5871,
      "LLY": 5872,
      "Ġteenagers": 5873,
      "ĠMatt": 5874,
      "ĠBarbara": 5875,
      "Ġtedious": 5876,
      "ĠTexas": 5877,
      "bid": 5878,
      "iat": 5879,
      "oir": 5880,
      "itter": 5881,
      "ĠIT": 5882,
      "ĠMiche": 5883,
      "ĠRos": 5884,
      "ĠGet": 5885,
      "Ġgrade": 5886,
      "Ġcovered": 5887,
      "fortunate": 5888,
      "Ġmorning": 5889,
      "Ġcaused": 5890,
      "Ġpropag": 5891,
      "Ġrecognize": 5892,
      "Ġoffered": 5893,
      "Ġoccasionally": 5894,
      "Ġcircumstances": 5895,
      "BI": 5896,
      "Man": 5897,
      "Ġwand": 5898,
      "Ġhearing": 5899,
      "Ġstol": 5900,
      "ceived": 5901,
      "unning": 5902,
      "ights": 5903,
      "abeth": 5904,
      "athan": 5905,
      "Ġglass": 5906,
      "Ġcreatures": 5907,
      "Ġgeneration": 5908,
      "Ġholding": 5909,
      "Ġsuffer": 5910,
      "Ġlargely": 5911,
      "Ġpractically": 5912,
      "Ġcounter": 5913,
      "VE": 5914,
      "oved": 5915,
      "Ġhired": 5916,
      "Ġlat": 5917,
      "Ġhey": 5918,
      "ĠBor": 5919,
      "ĠFestival": 5920,
      "ĠKu": 5921,
      "Ġquir": 5922,
      "Ġplots": 5923,
      "ĠThank": 5924,
      "ĠThrough": 5925,
      "ugos": 5926,
      "Ġfigured": 5927,
      "class": 5928,
      "Ġcriticism": 5929,
      "pent": 5930,
      "add": 5931,
      "Ġexagger": 5932,
      "Ġunp": 5933,
      "---": 5934,
      "entionally": 5935,
      "Ġartists": 5936,
      "Ġpresents": 5937,
      "Ġskip": 5938,
      "Ġcrack": 5939,
      "Ġteenager": 5940,
      "ĠApparently": 5941,
      "ĠRyan": 5942,
      "UN": 5943,
      "Ġcas": 5944,
      "Ġtoler": 5945,
      "arning": 5946,
      "aling": 5947,
      "ĠTor": 5948,
      "ĠBern": 5949,
      "ela": 5950,
      "ola": 5951,
      "ĠPri": 5952,
      "Ġprostit": 5953,
      "Ġtrick": 5954,
      "Ġtruck": 5955,
      "Ġacqu": 5956,
      "Ġimprove": 5957,
      "kins": 5958,
      "low": 5959,
      "mal": 5960,
      "Ġabuse": 5961,
      "Ġunfortunate": 5962,
      "ĠChan": 5963,
      "Ġflo": 5964,
      "Ġcontemporary": 5965,
      "ighter": 5966,
      "Ġbelieved": 5967,
      "Ġbitter": 5968,
      "Ġrefer": 5969,
      "Ġwalked": 5970,
      "Ġbrave": 5971,
      "eanwhile": 5972,
      "Ġfaithful": 5973,
      "ĠTarzan": 5974,
      "Ġrescue": 5975,
      "ĠWilson": 5976,
      "IR": 5977,
      "Ġfits": 5978,
      "Ġcant": 5979,
      "Ġly": 5980,
      "uls": 5981,
      "ĠDian": 5982,
      "ĠLewis": 5983,
      "ĠRose": 5984,
      "indere": 5985,
      "Ġoverwhel": 5986,
      "Ġspite": 5987,
      "ĠUs": 5988,
      "Ġkillers": 5989,
      "Ġcamer": 5990,
      "Ġpurch": 5991,
      "Ġcostume": 5992,
      "Ġbatt": 5993,
      "Ġcomplicated": 5994,
      "Ġsuffers": 5995,
      "!),": 5996,
      "):": 5997,
      "inated": 5998,
      "Ġmask": 5999,
      "ĠInt": 6000,
      "amous": 6001,
      "ĠMOV": 6002,
      "ĠMGM": 6003,
      "ĠComp": 6004,
      "Ġalco": 6005,
      "Ġintens": 6006,
      "Ġunfor": 6007,
      "Ġdisag": 6008,
      "ĠInc": 6009,
      "Ġrival": 6010,
      "Ġfactor": 6011,
      "Ġimagery": 6012,
      "ĠDonald": 6013,
      "Ġdescript": 6014,
      "belief": 6015,
      "Ġcampy": 6016,
      "Ġ1960": 6017,
      "Ġmassive": 6018,
      "Ġsource": 6019,
      "ĠVietnam": 6020,
      "mate": 6021,
      "Ġsne": 6022,
      "itiz": 6023,
      "Ġlie": 6024,
      "lection": 6025,
      "Ġhen": 6026,
      "ĠCur": 6027,
      "ĠDra": 6028,
      "ĠPitt": 6029,
      "Ġrot": 6030,
      "ĠNone": 6031,
      "Ġunse": 6032,
      "Ġstorytelling": 6033,
      "Ġarrest": 6034,
      "Ġpoign": 6035,
      "osexual": 6036,
      "Ġreminis": 6037,
      "Ġperformed": 6038,
      "Ġmainstream": 6039,
      "ĠShar": 6040,
      "Ġreporter": 6041,
      "Ġrental": 6042,
      "Ġsuspenseful": 6043,
      "Ġlawyer": 6044,
      "Do": 6045,
      "phy": 6046,
      "zo": 6047,
      "Ġ0": 6048,
      "Ġbab": 6049,
      "inging": 6050,
      "Ġcore": 6051,
      "orb": 6052,
      "Ġlink": 6053,
      "Ġash": 6054,
      "Ġhaunting": 6055,
      "ĠCru": 6056,
      "ĠCamp": 6057,
      "ĠWild": 6058,
      "Ġscr": 6059,
      "ĠLost": 6060,
      "ĠLaur": 6061,
      "umed": 6062,
      "lover": 6063,
      "Ġcrying": 6064,
      "Ġuninteresting": 6065,
      "====": 6066,
      "inderella": 6067,
      "Le": 6068,
      "girl": 6069,
      "ship": 6070,
      "Ġjeal": 6071,
      "Ġscale": 6072,
      "ĠLarry": 6073,
      "ĠGi": 6074,
      "ĠNed": 6075,
      "Ġwerewolf": 6076,
      "Ġrealizes": 6077,
      "Ġdirectly": 6078,
      "Ġhorribly": 6079,
      "ĠUnited": 6080,
      "offman": 6081,
      "Ġruined": 6082,
      "Ġextraord": 6083,
      "ĠComm": 6084,
      "Ġmelodrama": 6085,
      "case": 6086,
      "Ġsink": 6087,
      "Ġpile": 6088,
      "ĠSur": 6089,
      "ĠAp": 6090,
      "ĠDream": 6091,
      "Ġrough": 6092,
      "ĠKarl": 6093,
      "ĠCha": 6094,
      "Ġriver": 6095,
      "Ġdownright": 6096,
      "Ġdepicted": 6097,
      "Ġadmire": 6098,
      "Ġfeatured": 6099,
      "Ġcaptures": 6100,
      "Ġfocuses": 6101,
      "Ġangles": 6102,
      "written": 6103,
      "Ġidiot": 6104,
      "Ġobsessed": 6105,
      "Ġdegree": 6106,
      "Ġabandoned": 6107,
      "craft": 6108,
      "Ġenvironment": 6109,
      "chen": 6110,
      "Ġwrest": 6111,
      "ĠBE": 6112,
      "ura": 6113,
      "ĠWall": 6114,
      "ĠDem": 6115,
      "oln": 6116,
      "ĠLA": 6117,
      "Ġconsequ": 6118,
      "Ġnostal": 6119,
      "Ġoverlook": 6120,
      "weet": 6121,
      "Ġdistribut": 6122,
      "Ġmatters": 6123,
      "Ġpursu": 6124,
      "Ġpolitics": 6125,
      "Ġencou": 6126,
      "ĠJennifer": 6127,
      "ĠHitchcock": 6128,
      "Ġstolen": 6129,
      "11": 6130,
      "Here": 6131,
      "hi": 6132,
      "Ġwid": 6133,
      "iday": 6134,
      "rol": 6135,
      "ĠMoo": 6136,
      "Ġwel": 6137,
      "ĠPage": 6138,
      "onda": 6139,
      "achel": 6140,
      "ĠMarg": 6141,
      "Ġconcent": 6142,
      "Ġpaint": 6143,
      "Ġappreciated": 6144,
      "Ġcartoons": 6145,
      "Ġreveals": 6146,
      "Ġpreviously": 6147,
      "Ġwarned": 6148,
      "Ġdozen": 6149,
      "Ġencounter": 6150,
      "IM": 6151,
      "ixt": 6152,
      "ĠIran": 6153,
      "Ġeating": 6154,
      "stone": 6155,
      "Ġstom": 6156,
      "ĠMil": 6157,
      "ĠHong": 6158,
      "ĠHaving": 6159,
      "Ġvote": 6160,
      "ĠLat": 6161,
      "Ġunif": 6162,
      "odd": 6163,
      "Ġspoof": 6164,
      "Ġspends": 6165,
      "Ġconcert": 6166,
      "Ġforest": 6167,
      "Ġpaying": 6168,
      "Ġunderstood": 6169,
      "\"),": 6170,
      "cr": 6171,
      "gia": 6172,
      "produ": 6173,
      "Ġgentle": 6174,
      "Ġstays": 6175,
      "ĠAdd": 6176,
      "ĠMod": 6177,
      "Ġvs": 6178,
      "ĠLOV": 6179,
      "ĠNichol": 6180,
      "ĠOb": 6181,
      "Ġ16": 6182,
      "Ġterm": 6183,
      "Ġkinds": 6184,
      "Ġhandle": 6185,
      "Ġexamples": 6186,
      "Ġamazed": 6187,
      "Ġswim": 6188,
      "Ġfocused": 6189,
      "ĠGrand": 6190,
      "Christ": 6191,
      "Ġcontinuity": 6192,
      "Ġsubtitles": 6193,
      "ĠVERY": 6194,
      "laim": 6195,
      "isa": 6196,
      "itious": 6197,
      "Ġpity": 6198,
      "Ġheav": 6199,
      "ioned": 6200,
      "ĠSund": 6201,
      "ĠBBC": 6202,
      "ĠHa": 6203,
      "ĠGener": 6204,
      "Ġlog": 6205,
      "Ġscenario": 6206,
      "Ġgreater": 6207,
      "Ġviewed": 6208,
      "Ġignore": 6209,
      "Ġclosing": 6210,
      "vira": 6211,
      "ĠPresident": 6212,
      "gen": 6213,
      "wor": 6214,
      "Ġabr": 6215,
      "Ġpaced": 6216,
      "Ġgas": 6217,
      "ĠSun": 6218,
      "Ġshut": 6219,
      "ĠFer": 6220,
      "Ġupset": 6221,
      "ĠKore": 6222,
      "Ġmakeup": 6223,
      "Ġflow": 6224,
      "Ġcontest": 6225,
      "Ġappl": 6226,
      "Ġbuying": 6227,
      "Ġsorts": 6228,
      "Ġillustr": 6229,
      "ĠQueen": 6230,
      "Ġexecution": 6231,
      "Ġfunnier": 6232,
      "Ġgraph": 6233,
      "Ġchallenge": 6234,
      "Ġmultiple": 6235,
      "Ġvirtually": 6236,
      "ĠAvoid": 6237,
      "Ġenthusi": 6238,
      "Ġpropaganda": 6239,
      "ease": 6240,
      "mo": 6241,
      "ston": 6242,
      "Ġwhilst": 6243,
      "amie": 6244,
      "ĠSaturday": 6245,
      "ĠAli": 6246,
      "ĠHoffman": 6247,
      "thau": 6248,
      "Ġdiss": 6249,
      "onsider": 6250,
      "Ġclassics": 6251,
      "ĠSecond": 6252,
      "Dav": 6253,
      "gie": 6254,
      "mond": 6255,
      "alia": 6256,
      "aming": 6257,
      "ĠMin": 6258,
      "ĠMer": 6259,
      "ĠNancy": 6260,
      "Ġuniverse": 6261,
      "Ġguard": 6262,
      "Ġsimpl": 6263,
      "Ġdriven": 6264,
      "Ġdelivery": 6265,
      "199": 6266,
      "Ġvariety": 6267,
      "Ġsensitive": 6268,
      "ĠWatching": 6269,
      "Ġconversation": 6270,
      "ĠBrothers": 6271,
      "Ġunconvincing": 6272,
      "IA": 6273,
      "oppy": 6274,
      "ona": 6275,
      "anity": 6276,
      "Ġhaunted": 6277,
      "Ġvide": 6278,
      "than": 6279,
      "ĠRoman": 6280,
      "ĠGand": 6281,
      "ĠKill": 6282,
      "acle": 6283,
      "Ġworthwhile": 6284,
      "incoln": 6285,
      "Ġnovels": 6286,
      "Ġweakness": 6287,
      "Ġpicks": 6288,
      "Ġmovement": 6289,
      "Ġtremend": 6290,
      "Ġembarrassed": 6291,
      "ĠCalifornia": 6292,
      "ĠColumbo": 6293,
      "hem": 6294,
      "icit": 6295,
      "Ġgre": 6296,
      "utation": 6297,
      "eter": 6298,
      "Ġforth": 6299,
      "Ġanger": 6300,
      "ĠMST": 6301,
      "Ġwears": 6302,
      "ĠCle": 6303,
      "ĠDet": 6304,
      "Ġvivid": 6305,
      "Ġincor": 6306,
      "Ġcheer": 6307,
      "Ġcourage": 6308,
      "Ġobnox": 6309,
      "Ġviews": 6310,
      "Ġsounded": 6311,
      "Ġexplains": 6312,
      "irds": 6313,
      "Ġmagical": 6314,
      "ĠGrace": 6315,
      "Ġ1990": 6316,
      "Ġstruggling": 6317,
      "Ġrevolves": 6318,
      "Ġsympathy": 6319,
      "Ġrules": 6320,
      "Is": 6321,
      "Watch": 6322,
      "cul": 6323,
      "ients": 6324,
      "arian": 6325,
      "Ġbeloved": 6326,
      "etime": 6327,
      "ĠSometimes": 6328,
      "urs": 6329,
      "ante": 6330,
      "Ġclue": 6331,
      "Ġpregn": 6332,
      "Ġdisbelief": 6333,
      "Ġawards": 6334,
      "ĠVincent": 6335,
      "Ġcommit": 6336,
      "Ġrepet": 6337,
      "Ġpromising": 6338,
      "ĠWithout": 6339,
      "ĠDoes": 6340,
      "Ġtwisted": 6341,
      "Ġdesigned": 6342,
      "Ġintegr": 6343,
      "iveness": 6344,
      "ĠMurphy": 6345,
      "ĠMexican": 6346,
      "Anyway": 6347,
      "ĠSadly": 6348,
      "Ġmethod": 6349,
      "Ġtense": 6350,
      "Ġfreedom": 6351,
      "Ġbound": 6352,
      "Ġhealth": 6353,
      "ĠAL": 6354,
      "ĠFinally": 6355,
      "umph": 6356,
      "plin": 6357,
      "Ġ25": 6358,
      "igned": 6359,
      "Ġsurprises": 6360,
      "ĠBefore": 6361,
      "........": 6362,
      "Ġcredibility": 6363,
      "Ġpsycho": 6364,
      "utherland": 6365,
      "ĠCaptain": 6366,
      "Good": 6367,
      "ION": 6368,
      "after": 6369,
      "bit": 6370,
      "fess": 6371,
      "Ġfet": 6372,
      "onel": 6373,
      "ader": 6374,
      "Ġstumb": 6375,
      "Ġlibr": 6376,
      "osity": 6377,
      "ĠNE": 6378,
      "ĠOff": 6379,
      "Ġeverywhere": 6380,
      "Ġblow": 6381,
      "Ġprice": 6382,
      "Ġdecades": 6383,
      "Ġcompos": 6384,
      "Ġcalling": 6385,
      "Ġcommand": 6386,
      "Ġformat": 6387,
      "Ġtouches": 6388,
      "Ġdemonstr": 6389,
      "Ġfrightening": 6390,
      "Ġdetermined": 6391,
      "equ": 6392,
      "wy": 6393,
      "ani": 6394,
      "cellent": 6395,
      "ĠBran": 6396,
      "ĠCub": 6397,
      "Ġshadow": 6398,
      "ĠFlor": 6399,
      "plays": 6400,
      "Ġcris": 6401,
      "Ġrights": 6402,
      "ĠMaria": 6403,
      "Ġpassing": 6404,
      "Ġfavorites": 6405,
      "Ġposition": 6406,
      "Ġspoiler": 6407,
      "Ġdestroyed": 6408,
      "ĠMexico": 6409,
      "Ġrelatively": 6410,
      "Ġquirky": 6411,
      "called": 6412,
      "nan": 6413,
      "world": 6414,
      "Ġped": 6415,
      "Ġanime": 6416,
      "ĠHope": 6417,
      "ĠPict": 6418,
      "ĠRem": 6419,
      "ĠRick": 6420,
      "ramatic": 6421,
      "Ġcutting": 6422,
      "Ġatmospher": 6423,
      "Ġlandsc": 6424,
      "Ġrequired": 6425,
      "ĠRoger": 6426,
      "Ġpraise": 6427,
      "GE": 6428,
      "mates": 6429,
      "Ġwound": 6430,
      "Ġpage": 6431,
      "Ġdirty": 6432,
      "Ġeld": 6433,
      "imm": 6434,
      "ĠSat": 6435,
      "ĠBaby": 6436,
      "ĠMuch": 6437,
      "ĠCooper": 6438,
      "Ġsche": 6439,
      "ĠFu": 6440,
      "Ġloyal": 6441,
      "Ġprime": 6442,
      "Ġincident": 6443,
      "Ġdecl": 6444,
      "ĠReally": 6445,
      "Ġexperiences": 6446,
      "Ġcaptiv": 6447,
      "Ġwinner": 6448,
      "Ġnarration": 6449,
      "Ġinfluence": 6450,
      "Ġmildly": 6451,
      "Ġgruesome": 6452,
      "Ġveteran": 6453,
      "__": 6454,
      "kind": 6455,
      "atically": 6456,
      "orig": 6457,
      "Ġnaturally": 6458,
      "amor": 6459,
      "Ġliber": 6460,
      "ĠHA": 6461,
      "Ġvast": 6462,
      "ĠPoint": 6463,
      "ĠLincoln": 6464,
      "ĠEach": 6465,
      "Ġthrows": 6466,
      "Ġblat": 6467,
      "Ġcontact": 6468,
      "Ġcrude": 6469,
      "Ġpsychiat": 6470,
      "ĠPlanet": 6471,
      "ĠEdward": 6472,
      "ĠActually": 6473,
      "Ġsophistic": 6474,
      "Ġlesbian": 6475,
      "Ġmurderer": 6476,
      "Ġludicrous": 6477,
      "Ġashamed": 6478,
      "Ġtrap": 6479,
      "enced": 6480,
      "Ġnation": 6481,
      "Ġheck": 6482,
      "ĠCome": 6483,
      "Ġchoices": 6484,
      "ems": 6485,
      "eston": 6486,
      "ĠRoc": 6487,
      "igr": 6488,
      "ĠKat": 6489,
      "ĠYour": 6490,
      "ianc": 6491,
      "Ġsurface": 6492,
      "Ġsupernatural": 6493,
      "ĠBeaut": 6494,
      ".)<": 6495,
      "Ġconnected": 6496,
      "Ġdinosaur": 6497,
      "Ġslapstick": 6498,
      "Ġinspiration": 6499,
      "Ġobnoxious": 6500,
      "\").": 6501,
      "Like": 6502,
      "worth": 6503,
      "Ġdom": 6504,
      "Ġisol": 6505,
      "uty": 6506,
      "adget": 6507,
      "imate": 6508,
      "ulp": 6509,
      "Ġrank": 6510,
      "ĠUp": 6511,
      "Ġaccording": 6512,
      "Ġideal": 6513,
      "Ġminds": 6514,
      "Ġadvant": 6515,
      "ĠclichÃ©d": 6516,
      "Ġexecut": 6517,
      "Ġstatus": 6518,
      "Ġstatement": 6519,
      "ĠEspecially": 6520,
      "Ġstomach": 6521,
      "Ġthro": 6522,
      "ethe": 6523,
      "Ġsea": 6524,
      "Ġfranch": 6525,
      "Ġexists": 6526,
      "ĠLa": 6527,
      "Ġargu": 6528,
      "izabeth": 6529,
      "Ġraise": 6530,
      "Ġreputation": 6531,
      "Ġcorpor": 6532,
      "ĠJackie": 6533,
      "Ġirre": 6534,
      "Ġmetap": 6535,
      "Ġobsession": 6536,
      "Ġjoin": 6537,
      "Ġturkey": 6538,
      "Ġremotely": 6539,
      "ĠWalter": 6540,
      "Ġinhab": 6541,
      "Ġnecessarily": 6542,
      "Ġhip": 6543,
      "ali": 6544,
      "ĠSon": 6545,
      "ĠMovies": 6546,
      "ĠDie": 6547,
      "ĠDennis": 6548,
      "ĠFin": 6549,
      "tended": 6550,
      "Ġpreview": 6551,
      "Ġdislike": 6552,
      "Ġborder": 6553,
      "ĠWend": 6554,
      "coming": 6555,
      "198": 6556,
      "Ġcomedian": 6557,
      "Ġsettings": 6558,
      "Ġdesperately": 6559,
      "Ġlegendary": 6560,
      "ĠSarah": 6561,
      "Ġcontroversial": 6562,
      "Ġintensity": 6563,
      "ĠChaplin": 6564,
      "El": 6565,
      "Ex": 6566,
      "Ne": 6567,
      "ners": 6568,
      "Ġwishes": 6569,
      "Ġpan": 6570,
      "ashy": 6571,
      "Ġnative": 6572,
      "style": 6573,
      "ĠSull": 6574,
      "ĠWonder": 6575,
      "ĠDi": 6576,
      "ĠFar": 6577,
      "ĠJake": 6578,
      "beit": 6579,
      "Ġinstall": 6580,
      "Ġextras": 6581,
      "Ġdistinct": 6582,
      "iamond": 6583,
      "Ġmusicals": 6584,
      "Ġprivate": 6585,
      "riday": 6586,
      "Ġerotic": 6587,
      "Ġprotagonists": 6588,
      "ĠMusic": 6589,
      "Ġdepartment": 6590,
      "Ġfix": 6591,
      "Ġcust": 6592,
      "Ġcook": 6593,
      "Ġded": 6594,
      "rab": 6595,
      "illion": 6596,
      "ĠCas": 6597,
      "ĠWOR": 6598,
      "Ġplaced": 6599,
      "ĠFle": 6600,
      "Ġseek": 6601,
      "aped": 6602,
      "anski": 6603,
      "Ġserve": 6604,
      "Ġserved": 6605,
      "Ġaccess": 6606,
      "stery": 6607,
      "!!!!!!!!": 6608,
      "Ġspiritual": 6609,
      "ĠWalken": 6610,
      "Ġbaseball": 6611,
      "Ġsignificant": 6612,
      "rehens": 6613,
      "Ġatmospheric": 6614,
      "Despite": 6615,
      "breaking": 6616,
      "opping": 6617,
      "inals": 6618,
      "erved": 6619,
      "arant": 6620,
      "Ġdress": 6621,
      "eds": 6622,
      "Ġnude": 6623,
      "alph": 6624,
      "eturn": 6625,
      "ĠFair": 6626,
      "Ġcharge": 6627,
      "ĠKnight": 6628,
      "tending": 6629,
      "Ġclips": 6630,
      "Ġguilty": 6631,
      "Ġ192": 6632,
      "Ġgritty": 6633,
      "reek": 6634,
      "Ġenjoying": 6635,
      "Ġsecurity": 6636,
      "ographer": 6637,
      "rett": 6638,
      "Ġcarried": 6639,
      "Ġconfusion": 6640,
      "Ġdeliber": 6641,
      "ĠAnyone": 6642,
      "Ġstereotypical": 6643,
      "uppet": 6644,
      "ĠPhilip": 6645,
      "Ġsinister": 6646,
      "Having": 6647,
      "Ġdomin": 6648,
      "Ġmock": 6649,
      "ida": 6650,
      "ĠSpr": 6651,
      "ĠBrend": 6652,
      "ĠCurt": 6653,
      "ĠDa": 6654,
      "umber": 6655,
      "Ġqueen": 6656,
      "Ã©e": 6657,
      "Ġconvince": 6658,
      "Ġindie": 6659,
      "iko": 6660,
      "ungle": 6661,
      "Ġfigures": 6662,
      "Ġrule": 6663,
      "Ġcloser": 6664,
      "Ġanswers": 6665,
      "Ġprepared": 6666,
      "Ġinternational": 6667,
      "Ġneighborhood": 6668,
      "ĠNazi": 6669,
      "Ġgoofy": 6670,
      "ugosi": 6671,
      "Michael": 6672,
      "ns": 6673,
      "Ġwins": 6674,
      "Ġhack": 6675,
      "ĠBett": 6676,
      "ĠCount": 6677,
      "Ġshines": 6678,
      "ĠWarner": 6679,
      "ĠDuring": 6680,
      "Ġsuffe": 6681,
      "Ġscares": 6682,
      "Ġdeeper": 6683,
      "Ġunivers": 6684,
      "ĠEvil": 6685,
      "Ġtrite": 6686,
      "Ġcrash": 6687,
      "Ġcoinc": 6688,
      "ĠDevil": 6689,
      "Ġcommitted": 6690,
      "Ġbasis": 6691,
      "Ġdrives": 6692,
      "shi": 6693,
      "Ġmagaz": 6694,
      "Ġchanging": 6695,
      "ĠMatthau": 6696,
      "lynn": 6697,
      "Ġcontribut": 6698,
      "fits": 6699,
      "lig": 6700,
      "Ġtong": 6701,
      "Ġtiny": 6702,
      "Ġboot": 6703,
      "Ġbuddy": 6704,
      "Ġhar": 6705,
      "Ġpool": 6706,
      "lected": 6707,
      "Ġeth": 6708,
      "aying": 6709,
      "ĠBon": 6710,
      "Ġoutrage": 6711,
      "inda": 6712,
      "arden": 6713,
      "Ġunbe": 6714,
      "Ġhappiness": 6715,
      "atholic": 6716,
      "Ġextent": 6717,
      "Ġcaring": 6718,
      "ĠArmy": 6719,
      "Ġimmense": 6720,
      "asant": 6721,
      "ooge": 6722,
      "ĠSO": 6723,
      "ĠSn": 6724,
      "ĠAir": 6725,
      "Ġchief": 6726,
      "Ġjumps": 6727,
      "ĠPa": 6728,
      "ĠPre": 6729,
      "Ġ17": 6730,
      "Ġadop": 6731,
      "Ġthrowing": 6732,
      "ĠChina": 6733,
      "Ġblown": 6734,
      "Ġtear": 6735,
      "ĠVir": 6736,
      "Ġcring": 6737,
      "Ġhomeless": 6738,
      "Ġstupidity": 6739,
      "Ġtopic": 6740,
      "Ġfemin": 6741,
      "Ġstops": 6742,
      "ĠPeck": 6743,
      "Ġweekend": 6744,
      "Ġstrip": 6745,
      "ĠHolmes": 6746,
      "Ġbothered": 6747,
      "Ġlatest": 6748,
      "ĠMOVIE": 6749,
      "fall": 6750,
      "opper": 6751,
      "Ġtun": 6752,
      "Ġdynam": 6753,
      "ĠSutherland": 6754,
      "Ġenemy": 6755,
      "Ġgreatly": 6756,
      "Ġteens": 6757,
      "ivan": 6758,
      "ibal": 6759,
      "Ġoriginality": 6760,
      "ucky": 6761,
      "Ġexperiment": 6762,
      "ancing": 6763,
      "ĠMcG": 6764,
      "Ġmistakes": 6765,
      "ronic": 6766,
      "Ġjournal": 6767,
      "Ġescapes": 6768,
      "ĠIrish": 6769,
      "Ġseparate": 6770,
      "Ġservice": 6771,
      "Ġnominated": 6772,
      "Ġdescription": 6773,
      "etheless": 6774,
      "aust": 6775,
      "dim": 6776,
      "wing": 6777,
      "Ġtune": 6778,
      "Ġsaves": 6779,
      "order": 6780,
      "ĠSk": 6781,
      "ĠSchool": 6782,
      "ifies": 6783,
      "ĠFoster": 6784,
      "ĠRachel": 6785,
      "Ġarrog": 6786,
      "awa": 6787,
      "Ġinteract": 6788,
      "Ġfallen": 6789,
      "Ġtitles": 6790,
      "Ġrenting": 6791,
      "Ġparall": 6792,
      "Ġsisters": 6793,
      "Ġsteps": 6794,
      "Ġautom": 6795,
      "Ġsleeping": 6796,
      "Ġcarrying": 6797,
      "Ġbreathtaking": 6798,
      "Ġbelongs": 6799,
      "Ġracist": 6800,
      "ĠSusan": 6801,
      "ĠMoore": 6802,
      "US": 6803,
      "fun": 6804,
      "Ġtorn": 6805,
      "onest": 6806,
      "semble": 6807,
      "Ġyell": 6808,
      "ĠCap": 6809,
      "ĠKiller": 6810,
      "Ġentry": 6811,
      "Ġinco": 6812,
      "Ġraw": 6813,
      "Ġevident": 6814,
      "Ġrelax": 6815,
      "apping": 6816,
      "ĠSoon": 6817,
      "Ġlesser": 6818,
      "Ġprofound": 6819,
      "Ġadventures": 6820,
      "Ġignor": 6821,
      "Ġcondition": 6822,
      "Ġhomosexual": 6823,
      "Ġproductions": 6824,
      "ĠWWII": 6825,
      "ĠSandler": 6826,
      "ĠHardy": 6827,
      "Ġfranchise": 6828,
      "Ġsuffered": 6829,
      "BS": 6830,
      "Ġtask": 6831,
      "Ġmas": 6832,
      "Ġmont": 6833,
      "ils": 6834,
      "ĠTurn": 6835,
      "adays": 6836,
      "roph": 6837,
      "Ġnoted": 6838,
      "ĠCare": 6839,
      "ĠDal": 6840,
      "ĠDad": 6841,
      "outhern": 6842,
      "ĠProdu": 6843,
      "ĠLiving": 6844,
      "Ġworry": 6845,
      "ĠFlynn": 6846,
      "ĠOld": 6847,
      "Ġlocked": 6848,
      "obb": 6849,
      "Ġraised": 6850,
      "Ġsubsequ": 6851,
      "Ġconspir": 6852,
      "Ġjobs": 6853,
      "Ġconfess": 6854,
      "OOD": 6855,
      "IGHT": 6856,
      "Ġheavily": 6857,
      "Ġadvantage": 6858,
      "Ġton": 6859,
      "ito": 6860,
      "Ġlaid": 6861,
      "ĠCaine": 6862,
      "Ġcomical": 6863,
      "Ġrub": 6864,
      "Ġovercome": 6865,
      "Ġcheese": 6866,
      "Ġeleg": 6867,
      "Ġlights": 6868,
      "Ġdarkness": 6869,
      "Ġsuccessfully": 6870,
      "Ġfairy": 6871,
      "ĠIndia": 6872,
      "Ġlarger": 6873,
      "ĠIII": 6874,
      "ĠVictoria": 6875,
      "Ġmountain": 6876,
      "Ġlonely": 6877,
      "David": 6878,
      "Where": 6879,
      "lance": 6880,
      "something": 6881,
      "ught": 6882,
      "oration": 6883,
      "Ġphen": 6884,
      "Ġreward": 6885,
      "Ġanal": 6886,
      "Ġvi": 6887,
      "ĠFamily": 6888,
      "ĠRalph": 6889,
      "Ġlearning": 6890,
      "Ġenh": 6891,
      "Ġarms": 6892,
      "Ġagg": 6893,
      "iano": 6894,
      "Ġtrial": 6895,
      "except": 6896,
      "Ġopened": 6897,
      "Ġcredible": 6898,
      "Ġthrilling": 6899,
      "Ġangle": 6900,
      "Ġdevice": 6901,
      "ielberg": 6902,
      "Ġadapted": 6903,
      "Ġattacked": 6904,
      "Ġarrives": 6905,
      "ĠEnter": 6906,
      "ĠSidney": 6907,
      "Ġestablished": 6908,
      "opp": 6909,
      "ugh": 6910,
      "Ġfond": 6911,
      "ĠMom": 6912,
      "Ġchuck": 6913,
      "Ġkung": 6914,
      "ĠLI": 6915,
      "iger": 6916,
      "ĠKrist": 6917,
      "ogical": 6918,
      "plend": 6919,
      "Ġspark": 6920,
      "Ġguest": 6921,
      "Ġhorrific": 6922,
      "Ġstrict": 6923,
      "ĠReed": 6924,
      "Ġcorner": 6925,
      "Ġmiscast": 6926,
      "ĠCharl": 6927,
      "Ġmetal": 6928,
      "ĠUSA": 6929,
      "Ġintroduction": 6930,
      "Ġproperly": 6931,
      "Ġexperienced": 6932,
      "ĠObviously": 6933,
      "Ġpregnant": 6934,
      "ĠBranagh": 6935,
      "list": 6936,
      "noon": 6937,
      "wo": 6938,
      "bra": 6939,
      "ĠBook": 6940,
      "ĠMid": 6941,
      "Ġshy": 6942,
      "Ġshape": 6943,
      "ĠLane": 6944,
      "ĠGer": 6945,
      "ĠGlover": 6946,
      "Ġlovable": 6947,
      "Ġtricks": 6948,
      "forward": 6949,
      "Ġspoken": 6950,
      "ĠIntern": 6951,
      "prise": 6952,
      "Ġhelping": 6953,
      "Ġappearances": 6954,
      "ĠJulia": 6955,
      "ĠOtherwise": 6956,
      "Ġdrinking": 6957,
      "ĠRogers": 6958,
      "Ġfacial": 6959,
      "Ġburst": 6960,
      "ĠOliver": 6961,
      "Ġreminiscent": 6962,
      "AK": 6963,
      "Paul": 6964,
      "hs": 6965,
      "zil": 6966,
      "Ġcous": 6967,
      "Ġcases": 6968,
      "Ġ/>(": 6969,
      "ĠBesides": 6970,
      "ĠHeston": 6971,
      "Ġmansion": 6972,
      "ounding": 6973,
      "thew": 6974,
      "Ġresist": 6975,
      "Ġrelated": 6976,
      "Ġdeadly": 6977,
      "Ġoccup": 6978,
      "Ġequal": 6979,
      "Ġpresentation": 6980,
      "Ġstriking": 6981,
      "Ġtreasure": 6982,
      "THE": 6983,
      "Ġ1940": 6984,
      "ĠTracy": 6985,
      "ĠAbout": 6986,
      "Ġvirgin": 6987,
      "Ġbalance": 6988,
      "Ġextraordinary": 6989,
      "hib": 6990,
      "Ġice": 6991,
      "Ġoil": 6992,
      "Ġwasting": 6993,
      "ĠBak": 6994,
      "ĠLugosi": 6995,
      "Ġposter": 6996,
      "Ġspread": 6997,
      "Ġresolution": 6998,
      "ibilities": 6999,
      "comedy": 7000,
      "Ġannoun": 7001,
      "Ġguessing": 7002,
      "Ġdriver": 7003,
      "Ġstronger": 7004,
      "ĠBritain": 7005,
      "Ġratings": 7006,
      "Ġamongst": 7007,
      "Ġinnocence": 7008,
      "Ġvacation": 7009,
      "By": 7010,
      "BLE": 7011,
      "CK": 7012,
      "Okay": 7013,
      "aver": 7014,
      "Ġtheory": 7015,
      "Ġbreaking": 7016,
      "ooby": 7017,
      "ĠSal": 7018,
      "Ġseve": 7019,
      "ĠMiller": 7020,
      "Ġali": 7021,
      "ogue": 7022,
      "...\"": 7023,
      "Ġtouched": 7024,
      "Ġcritical": 7025,
      "Ġsleazy": 7026,
      "Ġ2000": 7027,
      "ĠANY": 7028,
      "Ġdivor": 7029,
      "Ġweapon": 7030,
      "Ġinterpretation": 7031,
      "?),": 7032,
      "En": 7033,
      "cil": 7034,
      "iques": 7035,
      "when": 7036,
      "rees": 7037,
      "erior": 7038,
      "Ġfish": 7039,
      "Ġinj": 7040,
      "ieu": 7041,
      "oooo": 7042,
      "ira": 7043,
      "ĠBoll": 7044,
      "ĠBAD": 7045,
      "ĠDomin": 7046,
      "ĠLem": 7047,
      "ĠFBI": 7048,
      "udson": 7049,
      "Ġensemble": 7050,
      "gettable": 7051,
      "ĠUltim": 7052,
      "Ġgrim": 7053,
      "Ġattempting": 7054,
      "Ġdemand": 7055,
      "Ġtechnique": 7056,
      "********": 7057,
      "Ġsentimental": 7058,
      "Ġcauses": 7059,
      "afia": 7060,
      "Ġreactions": 7061,
      "Ġstylish": 7062,
      "Ġpoignant": 7063,
      "ĠRochester": 7064,
      "Maybe": 7065,
      "Wow": 7066,
      "mod": 7067,
      "tte": 7068,
      "Ġain": 7069,
      "Ġaired": 7070,
      "Ġcand": 7071,
      "Ġdign": 7072,
      "Ġgar": 7073,
      "Ġnom": 7074,
      "actic": 7075,
      "agal": 7076,
      "Ġneck": 7077,
      "ĠOkay": 7078,
      "Ġsheriff": 7079,
      "Ġhorrend": 7080,
      "Ġ24": 7081,
      "Ġwarri": 7082,
      "ĠBeing": 7083,
      "Ġsky": 7084,
      "ĠCarol": 7085,
      "Ġdaughters": 7086,
      "Ġflawed": 7087,
      "Ġdinner": 7088,
      "ĠEllen": 7089,
      "Ġthousands": 7090,
      "cut": 7091,
      "end": 7092,
      "zed": 7093,
      "inate": 7094,
      "Ġwreck": 7095,
      "Ġfest": 7096,
      "ĠIre": 7097,
      "Ġeager": 7098,
      "ĠTen": 7099,
      "irit": 7100,
      "ĠBog": 7101,
      "ĠBollywood": 7102,
      "Ġlift": 7103,
      "ĠMann": 7104,
      "agl": 7105,
      "ooky": 7106,
      "Ġeveryday": 7107,
      "Ġspots": 7108,
      "Ġtender": 7109,
      "Ġinvis": 7110,
      "Ġgrave": 7111,
      "Ġshoots": 7112,
      "going": 7113,
      "Ġsuggests": 7114,
      "Ġrobot": 7115,
      "Ġreference": 7116,
      "Ġcriminals": 7117,
      "Ġhundreds": 7118,
      "ĠLeslie": 7119,
      "Ġdisagree": 7120,
      "Ġincoherent": 7121,
      "tan": 7122,
      "Ġ***": 7123,
      "Ġfra": 7124,
      "Ġhipp": 7125,
      "anny": 7126,
      "Ġdump": 7127,
      "asion": 7128,
      "Ġgain": 7129,
      "Ġgather": 7130,
      "verse": 7131,
      "ĠMAN": 7132,
      "ĠCH": 7133,
      "Ġshark": 7134,
      "ĠWid": 7135,
      "ĠDun": 7136,
      "aki": 7137,
      "ĠOl": 7138,
      "ĠKell": 7139,
      "Ġshower": 7140,
      "oyd": 7141,
      "angers": 7142,
      "Ġpointed": 7143,
      "onscious": 7144,
      "Ġstarred": 7145,
      "ĠSpielberg": 7146,
      "ĠElvira": 7147,
      "Ġpurely": 7148,
      "Ġmillions": 7149,
      "Ġ:)": 7150,
      "Ġidiotic": 7151,
      "Ġconcerns": 7152,
      "Ġdropped": 7153,
      "Ġweapons": 7154,
      "Ġcharisma": 7155,
      "Ġimaginative": 7156,
      "ĠJewish": 7157,
      "Ġrevelation": 7158,
      "Ġwelcome": 7159,
      "30": 7160,
      "fire": 7161,
      "ipped": 7162,
      "ipping": 7163,
      "vably": 7164,
      "writ": 7165,
      "inci": 7166,
      "Ġbow": 7167,
      "Ġbesides": 7168,
      "Ġcy": 7169,
      "Ġthick": 7170,
      "eder": 7171,
      "chant": 7172,
      "ĠSN": 7173,
      "ĠBu": 7174,
      "ĠBurt": 7175,
      "uristic": 7176,
      "Ġchilling": 7177,
      "elve": 7178,
      "agn": 7179,
      "agan": 7180,
      "ouses": 7181,
      "ĠLore": 7182,
      "ĠRep": 7183,
      "Ġmechan": 7184,
      "Ġcance": 7185,
      "Ġseeking": 7186,
      "Ġblah": 7187,
      "Ġfinan": 7188,
      "Ġconsists": 7189,
      "ographic": 7190,
      "ĠBlue": 7191,
      "Ġcameos": 7192,
      "Ġattacks": 7193,
      "Ġgripping": 7194,
      "ĠJessica": 7195,
      "Ġprincip": 7196,
      "Ġgraphics": 7197,
      "wyck": 7198,
      "ĠVirgin": 7199,
      "dimensional": 7200,
      "TER": 7201,
      "happy": 7202,
      "zel": 7203,
      "isand": 7204,
      "Ġtow": 7205,
      "ico": 7206,
      "Ġreli": 7207,
      "Ġstates": 7208,
      "ĠSir": 7209,
      "ĠBuck": 7210,
      "ĠCus": 7211,
      "ĠHal": 7212,
      "ĠHudson": 7213,
      "aky": 7214,
      "opath": 7215,
      "ĠJamie": 7216,
      "irected": 7217,
      "ĠAlice": 7218,
      "ersonally": 7219,
      "Ġtrapped": 7220,
      "Ġaccomp": 7221,
      "existent": 7222,
      "Ġglimp": 7223,
      "Ġhalfway": 7224,
      "ification": 7225,
      "ĠSomeone": 7226,
      "ĠAmaz": 7227,
      "Ġessential": 7228,
      "Ġnerd": 7229,
      "ĠCamer": 7230,
      "Ġmarvelous": 7231,
      "Ġglimpse": 7232,
      "CT": 7233,
      "kick": 7234,
      "mit": 7235,
      "Ġdude": 7236,
      "ĠAward": 7237,
      "Ġweb": 7238,
      "ĠCow": 7239,
      "Ġvia": 7240,
      "ĠPL": 7241,
      "acked": 7242,
      "....<": 7243,
      "assion": 7244,
      "ĠStud": 7245,
      "Ġfriendly": 7246,
      "Ġchildish": 7247,
      "phan": 7248,
      "ĠJohnson": 7249,
      "Ġcreation": 7250,
      "chell": 7251,
      "liners": 7252,
      "rified": 7253,
      "Ġphysically": 7254,
      "conom": 7255,
      "Ġaston": 7256,
      "Ġtongue": 7257,
      "LD": 7258,
      "gain": 7259,
      "uel": 7260,
      "ya": 7261,
      "hew": 7262,
      "onse": 7263,
      "Ġgut": 7264,
      "lee": 7265,
      "entric": 7266,
      "allo": 7267,
      "amber": 7268,
      "urai": 7269,
      "ĠDrag": 7270,
      "ĠLion": 7271,
      "ĠFel": 7272,
      "ĠFriday": 7273,
      "abulous": 7274,
      "Ġperpet": 7275,
      "plots": 7276,
      "Ġknife": 7277,
      "ĠChannel": 7278,
      "Ġteeth": 7279,
      "Ġminimal": 7280,
      "Ġconsum": 7281,
      "Ġcarefully": 7282,
      "gging": 7283,
      "Ġcountries": 7284,
      "grade": 7285,
      "Ġunfold": 7286,
      "Ġuncomfortable": 7287,
      "60": 7288,
      "Mr": 7289,
      "gun": 7290,
      "asingly": 7291,
      "Ġinfect": 7292,
      "Ġlazy": 7293,
      "ety": 7294,
      "ĠMic": 7295,
      "rael": 7296,
      "ĠHave": 7297,
      "ushes": 7298,
      "Ġrushed": 7299,
      "Ġmeat": 7300,
      "inder": 7301,
      "igs": 7302,
      "ĠEN": 7303,
      "place": 7304,
      "Ġbetray": 7305,
      "erty": 7306,
      "Ġdisgu": 7307,
      "ĠAlt": 7308,
      "Ġscreening": 7309,
      "ĠBrid": 7310,
      "Ġworthless": 7311,
      "Ġsuperfic": 7312,
      "Ġrelevant": 7313,
      "ĠBeck": 7314,
      "Ġhopefully": 7315,
      "Ġamazingly": 7316,
      "Ġmedical": 7317,
      "Ġirony": 7318,
      "ĠJulie": 7319,
      "Ġmirror": 7320,
      "Unfortunately": 7321,
      "ĠYeah": 7322,
      "Ġfrequently": 7323,
      "Ġinexplic": 7324,
      "ĠBettie": 7325,
      "Gr": 7326,
      "pse": 7327,
      "such": 7328,
      "vo": 7329,
      "Ġske": 7330,
      "Ġsides": 7331,
      "rell": 7332,
      "Ġcared": 7333,
      "onne": 7334,
      "Ġhiding": 7335,
      "Ġnu": 7336,
      "Ġsends": 7337,
      "Ġbutt": 7338,
      "Ġwebs": 7339,
      "ĠWould": 7340,
      "Ġexer": 7341,
      "ĠPier": 7342,
      "Ġrisk": 7343,
      "ĠRand": 7344,
      "ĠRec": 7345,
      "Ġmere": 7346,
      "ĠNel": 7347,
      "Ġgoal": 7348,
      "Ġenter": 7349,
      "ĠHeaven": 7350,
      "Ġcontain": 7351,
      "aze": 7352,
      "Ġcaric": 7353,
      "Ġdepiction": 7354,
      "spired": 7355,
      "ĠDefinitely": 7356,
      "Ġsatir": 7357,
      "Ġbrand": 7358,
      "Ġcultural": 7359,
      "Ġsnow": 7360,
      "ambling": 7361,
      "Ġexpressions": 7362,
      "uppets": 7363,
      "Ġsucceeds": 7364,
      "Ġreplaced": 7365,
      "Ġsplit": 7366,
      "Ġinterviews": 7367,
      "Ġmentally": 7368,
      "Ġbroadcast": 7369,
      "Ġcynical": 7370,
      "penter": 7371,
      "Ġlibrary": 7372,
      "Ġaliens": 7373,
      "Br": 7374,
      "from": 7375,
      "rich": 7376,
      "inch": 7377,
      "Ġsings": 7378,
      "Ġsplend": 7379,
      "Ġwicked": 7380,
      "Ġlying": 7381,
      "story": 7382,
      "ĠSav": 7383,
      "ĠDE": 7384,
      "redict": 7385,
      "ĠChild": 7386,
      "atherine": 7387,
      "ructed": 7388,
      "Ġsubplot": 7389,
      "Ġtriumph": 7390,
      "ĠBrook": 7391,
      "ĠBrooks": 7392,
      "Ġmindless": 7393,
      "ception": 7394,
      "Ġanticip": 7395,
      "Ġhoped": 7396,
      "Ġsuperbly": 7397,
      "Ġpersonalities": 7398,
      "EAD": 7399,
      "Ġmadness": 7400,
      "Ġwalls": 7401,
      "minute": 7402,
      "Ġsurrounding": 7403,
      "Ġdubbing": 7404,
      "Ġperformers": 7405,
      "80": 7406,
      "Per": 7407,
      "Will": 7408,
      "book": 7409,
      "iner": 7410,
      "Ġwave": 7411,
      "Ġbik": 7412,
      "itchell": 7413,
      "arter": 7414,
      "oops": 7415,
      "ĠSU": 7416,
      "Ġchoos": 7417,
      "Ġdogs": 7418,
      "Ġdece": 7419,
      "Ġdepe": 7420,
      "uments": 7421,
      "udge": 7422,
      "Ġpoet": 7423,
      "Ġadequ": 7424,
      "avor": 7425,
      "Ġguilt": 7426,
      "Ġbridge": 7427,
      "Ġcarries": 7428,
      "Ġretarded": 7429,
      "Ġdrown": 7430,
      "ĠStanwyck": 7431,
      "ĠAustralia": 7432,
      "ĠPolanski": 7433,
      "ĠRomero": 7434,
      "Ġargument": 7435,
      "ĠUniversal": 7436,
      "fest": 7437,
      "Ġfil": 7438,
      "Ġhors": 7439,
      "Ġlust": 7440,
      "ĠTake": 7441,
      "Ġult": 7442,
      "ĠBL": 7443,
      "ĠBros": 7444,
      "ĠBurns": 7445,
      "ĠMa": 7446,
      "ĠMeanwhile": 7447,
      "Ġplastic": 7448,
      "istically": 7449,
      "Ġlegs": 7450,
      "ĠOur": 7451,
      "Ġmyst": 7452,
      "ĠKen": 7453,
      "acre": 7454,
      "ĠChurch": 7455,
      "Ġguarant": 7456,
      "Ġafternoon": 7457,
      "Ġscreenwriter": 7458,
      "Ġelabor": 7459,
      "umbling": 7460,
      "Ġsket": 7461,
      "Ġlisted": 7462,
      "Ġhonor": 7463,
      "ĠGeor": 7464,
      "Ġbroke": 7465,
      "Ġafford": 7466,
      "Ġambig": 7467,
      "Ġofficial": 7468,
      "Ġoccurs": 7469,
      "Ġregarding": 7470,
      "Ġspecific": 7471,
      "Ġwondered": 7472,
      "Fran": 7473,
      "hard": 7474,
      "tes": 7475,
      "Ġmature": 7476,
      "esc": 7477,
      "entist": 7478,
      "Ġstiff": 7479,
      "ĠSop": 7480,
      "ĠAud": 7481,
      "ĠHug": 7482,
      "Ġchair": 7483,
      "Ġchases": 7484,
      "Ġattend": 7485,
      "ĠDom": 7486,
      "ĠDep": 7487,
      "usions": 7488,
      "Ġrum": 7489,
      "ĠGen": 7490,
      "ĠNat": 7491,
      "ĠKap": 7492,
      "new": 7493,
      "ĠAndre": 7494,
      "Ġattached": 7495,
      "ĠAlong": 7496,
      "Ġtraum": 7497,
      "Ġsuburb": 7498,
      "Ġsexually": 7499,
      "ĠMacArthur": 7500,
      "Ġaccepted": 7501,
      "Ġneighb": 7502,
      "ĠStanley": 7503,
      "ĠAstaire": 7504,
      "Ġabrupt": 7505,
      "!.": 7506,
      "AA": 7507,
      "Director": 7508,
      "dated": 7509,
      "hh": 7510,
      "sky": 7511,
      "ti": 7512,
      "wife": 7513,
      "watch": 7514,
      "Ġfaced": 7515,
      "Ġfianc": 7516,
      "orrow": 7517,
      "ĠId": 7518,
      "ĠIng": 7519,
      "Ġeconom": 7520,
      "utch": 7521,
      "ctions": 7522,
      "Ġbeach": 7523,
      "ĠBac": 7524,
      "ĠWes": 7525,
      "ifying": 7526,
      "aka": 7527,
      "ago": 7528,
      "Ġalright": 7529,
      "ĠPG": 7530,
      "ĠPower": 7531,
      "ĠFul": 7532,
      "quis": 7533,
      "ĠJay": 7534,
      "ĠNY": 7535,
      "Ġreasonable": 7536,
      "Ġperfection": 7537,
      "Ġnightmare": 7538,
      "ĠClub": 7539,
      "Ġattempted": 7540,
      "ĠArn": 7541,
      "Ġhearts": 7542,
      "ĠDavies": 7543,
      "Ġtechniques": 7544,
      "Ġ2006": 7545,
      "Ġinnov": 7546,
      "ONE": 7547,
      "Ġsentiment": 7548,
      "ĠStreisand": 7549,
      "ĠSwed": 7550,
      "Ġdisappear": 7551,
      "Ġincompet": 7552,
      "ĠREALLY": 7553,
      "Finally": 7554,
      "wl": 7555,
      "Ġsons": 7556,
      "rep": 7557,
      "rer": 7558,
      "Ġwake": 7559,
      "Ġcock": 7560,
      "Ġthread": 7561,
      "Ġchamp": 7562,
      "empl": 7563,
      "ĠDaw": 7564,
      "olves": 7565,
      "ĠLily": 7566,
      "ĠNol": 7567,
      "plete": 7568,
      "Ġrolling": 7569,
      "Ġpartly": 7570,
      "ublic": 7571,
      "Ġappalling": 7572,
      "ĠSha": 7573,
      "Ġadding": 7574,
      "Ġrestaur": 7575,
      "ĠClaire": 7576,
      "Ġmessages": 7577,
      "Ġtransfer": 7578,
      "ĠIsrael": 7579,
      "Ġinfamous": 7580,
      "Ġpatient": 7581,
      "Ġstruggles": 7582,
      "Ġboredom": 7583,
      "Ġrepeat": 7584,
      "Ġfolk": 7585,
      "Ġcuriosity": 7586,
      "Ġvirus": 7587,
      "Ġracism": 7588,
      "Ġincreasingly": 7589,
      "Ġtribute": 7590,
      "Ġwidow": 7591,
      "ĠSopran": 7592,
      "Most": 7593,
      "TA": 7594,
      "mitted": 7595,
      "vest": 7596,
      "Ġhun": 7597,
      "Ġtoile": 7598,
      "stop": 7599,
      "Ġbeating": 7600,
      "adows": 7601,
      "Ġstone": 7602,
      "Ġstunt": 7603,
      "ĠSher": 7604,
      "ĠBette": 7605,
      "Ġnotable": 7606,
      "ĠHy": 7607,
      "ĠHome": 7608,
      "ĠWater": 7609,
      "ements": 7610,
      "Ġactiv": 7611,
      "olved": 7612,
      "Ġalt": 7613,
      "ĠFore": 7614,
      "ference": 7615,
      "inds": 7616,
      "igan": 7617,
      "Ġquote": 7618,
      "Ġpreach": 7619,
      "ccentric": 7620,
      "Ġproof": 7621,
      "Ġattraction": 7622,
      "Ġsurf": 7623,
      "Ġoblig": 7624,
      "ocr": 7625,
      "Ġinsert": 7626,
      "Ġhandful": 7627,
      "ĠClass": 7628,
      "Ġdrags": 7629,
      "Ġdevelops": 7630,
      "pses": 7631,
      "Ġadmir": 7632,
      "Ġironic": 7633,
      "Ġdocumentaries": 7634,
      "Ġcomplaint": 7635,
      "Ġmistaken": 7636,
      "ĠEmma": 7637,
      "Ġkidnapped": 7638,
      "Ġpuzz": 7639,
      "Ġcabin": 7640,
      "Ġsearching": 7641,
      "works": 7642,
      "ĠCurtis": 7643,
      "\"?": 7644,
      "Ad": 7645,
      "Fi": 7646,
      "can": 7647,
      "ez": 7648,
      "hold": 7649,
      "Ġtree": 7650,
      "Ġwra": 7651,
      "Ġmes": 7652,
      "Ġinher": 7653,
      "char": 7654,
      "rah": 7655,
      "acter": 7656,
      "ĠLam": 7657,
      "type": 7658,
      "Ġbackd": 7659,
      "ocal": 7660,
      "Ġnewsp": 7661,
      "ords": 7662,
      "ograph": 7663,
      "Ġrestra": 7664,
      "Ġthrillers": 7665,
      "Ġdevil": 7666,
      "Ġrobber": 7667,
      "Ġprofession": 7668,
      "Ġhomage": 7669,
      "Ġbeaten": 7670,
      "Ġcompetent": 7671,
      "Ġrepeatedly": 7672,
      "Ġwealthy": 7673,
      "Robert": 7674,
      "Ġholiday": 7675,
      "ĠMichelle": 7676,
      "ĠNelson": 7677,
      "iation": 7678,
      "Ġtempt": 7679,
      "Ġhole": 7680,
      "Ġnine": 7681,
      "Ġupper": 7682,
      "ĠMO": 7683,
      "ĠHunter": 7684,
      "ĠRing": 7685,
      "quel": 7686,
      "ĠGRE": 7687,
      "odes": 7688,
      "Ġenorm": 7689,
      "mentioned": 7690,
      "Ġoverdone": 7691,
      "Ġenjoyment": 7692,
      "Ġnowadays": 7693,
      "Ġterrifying": 7694,
      "Ġfarm": 7695,
      "Ġartific": 7696,
      "umbs": 7697,
      "Ġdramas": 7698,
      "ĠScooby": 7699,
      "ĠAtl": 7700,
      "ĠSeason": 7701,
      "ĠCarpenter": 7702,
      "ĠElizabeth": 7703,
      "ĠPhill": 7704,
      "Ġresponse": 7705,
      "Ġrequires": 7706,
      "ĠBurton": 7707,
      "ĠEyre": 7708,
      "Ġcrafted": 7709,
      "Ġassistant": 7710,
      "Ġvulner": 7711,
      "Ġendearing": 7712,
      "Ġunforgettable": 7713,
      "Ġuniform": 7714,
      "ĠSunday": 7715,
      "ĠGeneral": 7716,
      "Ġmagazine": 7717,
      "Ġconspiracy": 7718,
      "ĠFulci": 7719,
      "Tr": 7720,
      "bidden": 7721,
      "ket": 7722,
      "la": 7723,
      "hest": 7724,
      "isation": 7725,
      "atisf": 7726,
      "oni": 7727,
      "Ġhunt": 7728,
      "imum": 7729,
      "ĠMas": 7730,
      "ĠMitch": 7731,
      "Ġweight": 7732,
      "ĠHanks": 7733,
      "Ġvenge": 7734,
      "Ġrat": 7735,
      "ĠRen": 7736,
      "ĠNational": 7737,
      "ello": 7738,
      "ĠKurt": 7739,
      "Ġprec": 7740,
      "Ġrealise": 7741,
      "hattan": 7742,
      "Ġspy": 7743,
      "because": 7744,
      "Ġspending": 7745,
      "Ġresour": 7746,
      "Ġappearing": 7747,
      "Ġaccused": 7748,
      "retty": 7749,
      "Ġdetract": 7750,
      "Ġmenacing": 7751,
      "ĠSeagal": 7752,
      "shine": 7753,
      "Ġrefuses": 7754,
      "Ġswitch": 7755,
      "Char": 7756,
      "ĠNightmare": 7757,
      "Ġmedium": 7758,
      "Ġrepresents": 7759,
      "ĠActing": 7760,
      "ĠCanada": 7761,
      "Ġjealous": 7762,
      "Ġexercise": 7763,
      "Ġultra": 7764,
      "Bra": 7765,
      "Con": 7766,
      "hay": 7767,
      "jo": 7768,
      "lines": 7769,
      "rics": 7770,
      "Ġfired": 7771,
      "itches": 7772,
      "Ġcere": 7773,
      "Ġcried": 7774,
      "ilton": 7775,
      "ĠBol": 7776,
      "urse": 7777,
      "Ġjerk": 7778,
      "ĠFriend": 7779,
      "Ġenters": 7780,
      "Ġsmooth": 7781,
      "Ġscripts": 7782,
      "Ġaddict": 7783,
      "Ġlessons": 7784,
      "Ġshorts": 7785,
      "Ġglob": 7786,
      "Ġimagined": 7787,
      "Ġdestruction": 7788,
      "Ġpulling": 7789,
      "Star": 7790,
      "ĠMatthew": 7791,
      "ĠTrue": 7792,
      "rifice": 7793,
      "ĠSecret": 7794,
      "ĠEastwood": 7795,
      "accur": 7796,
      "ĠBeatty": 7797,
      "ĠCinema": 7798,
      "Ġtremendous": 7799,
      "Ġunbear": 7800,
      "ĠWidmark": 7801,
      "'.<": 7802,
      "bal": 7803,
      "iently": 7804,
      "ux": 7805,
      "Ġtag": 7806,
      "Ġfirm": 7807,
      "Ġcarn": 7808,
      "Ġlur": 7809,
      "Ġetern": 7810,
      "seud": 7811,
      "ids": 7812,
      "ĠSomething": 7813,
      "ĠBart": 7814,
      "urance": 7815,
      "ĠCann": 7816,
      "ĠCinderella": 7817,
      "ifting": 7818,
      "ophy": 7819,
      "aste": 7820,
      "ĠRun": 7821,
      "ĠEnd": 7822,
      "mann": 7823,
      "Ġimit": 7824,
      "ĠVeg": 7825,
      "Ġincons": 7826,
      "Ġletting": 7827,
      "Ġbusy": 7828,
      "ĠOscars": 7829,
      "Ġ2001": 7830,
      "ĠMorris": 7831,
      "Ġchecking": 7832,
      "Ġbriefly": 7833,
      "Ġphotographer": 7834,
      "âĢĻ": 7835,
      "Ġreunion": 7836,
      "ĠLaura": 7837,
      "Ġhorses": 7838,
      "UST": 7839,
      "iors": 7840,
      "Ġtoss": 7841,
      "Ġpseud": 7842,
      "Ġdire": 7843,
      "Ġdare": 7844,
      "oto": 7845,
      "ĠABC": 7846,
      "ĠBack": 7847,
      "ĠBaker": 7848,
      "acted": 7849,
      "Ġintentions": 7850,
      "ĠGhost": 7851,
      "ĠUnder": 7852,
      "ĠJoey": 7853,
      "Ġpresident": 7854,
      "Ġsummary": 7855,
      "Ġsurviv": 7856,
      "Ġimmigr": 7857,
      "Ġdraws": 7858,
      "Ġambitious": 7859,
      "ĠProbably": 7860,
      "Ġinitially": 7861,
      "rocod": 7862,
      "ĠBasically": 7863,
      "horror": 7864,
      "ĠFrancisco": 7865,
      "Ġelder": 7866,
      "Ġinstallment": 7867,
      "Ġphenomen": 7868,
      "ELL": 7869,
      "nic": 7870,
      "rase": 7871,
      "Ġfitting": 7872,
      "Ġfulf": 7873,
      "Ġbudd": 7874,
      "Ġgal": 7875,
      "ioni": 7876,
      "iders": 7877,
      "ĠSuch": 7878,
      "ĠAcc": 7879,
      "ĠMed": 7880,
      "ĠCry": 7881,
      "ĠWere": 7882,
      "Ġjack": 7883,
      "ĠRee": 7884,
      "Ġtiming": 7885,
      "ĠKane": 7886,
      "ables": 7887,
      "Ġprevent": 7888,
      "Ġinsist": 7889,
      "isms": 7890,
      "ĠDev": 7891,
      "Ġadvance": 7892,
      "Ġdealt": 7893,
      "ĠIndeed": 7894,
      "Ġdollar": 7895,
      "Ġpacked": 7896,
      "Ġvampires": 7897,
      "Ġinternet": 7898,
      "Ġnetwork": 7899,
      "ĠThings": 7900,
      "ĠFreeman": 7901,
      "Ġexaggerated": 7902,
      "Ġsuperficial": 7903,
      "13": 7904,
      "Jack": 7905,
      "SPOILERS": 7906,
      "uate": 7907,
      "ato": 7908,
      "atures": 7909,
      "Ġinaccur": 7910,
      "Ġgee": 7911,
      "Ġguts": 7912,
      "lean": 7913,
      "imer": 7914,
      "Ġstyl": 7915,
      "idents": 7916,
      "ĠAT": 7917,
      "ĠAW": 7918,
      "ĠCole": 7919,
      "ĠHack": 7920,
      "Ġkit": 7921,
      "ĠPan": 7922,
      "ĠFall": 7923,
      "ĠJosh": 7924,
      "ĠGarb": 7925,
      "Ġnose": 7926,
      "eping": 7927,
      "Ġterrit": 7928,
      "ĠShep": 7929,
      "icularly": 7930,
      "Ġportra": 7931,
      "Ġdragged": 7932,
      "......": 7933,
      "Ġconclud": 7934,
      "Ġmorality": 7935,
      "Ġpolitic": 7936,
      "ĠDoctor": 7937,
      "Ġexisted": 7938,
      "Ġmeaningful": 7939,
      "Ġprojects": 7940,
      "Ġhype": 7941,
      "Ġidiots": 7942,
      "Ġaccomplish": 7943,
      "Ġtorment": 7944,
      "Ġdaily": 7945,
      "Ġbattles": 7946,
      "ĠMargaret": 7947,
      "Ġsophisticated": 7948,
      "Ġcousin": 7949,
      "Ġaccompan": 7950,
      "Act": 7951,
      "Com": 7952,
      "UL": 7953,
      "gal": 7954,
      "gate": 7955,
      "ype": 7956,
      "Ġsam": 7957,
      "Ġhill": 7958,
      "Ġtool": 7959,
      "Ġnational": 7960,
      "ĠAge": 7961,
      "race": 7962,
      "ĠCel": 7963,
      "ĠCook": 7964,
      "agney": 7965,
      "thrill": 7966,
      "ĠLum": 7967,
      "umably": 7968,
      "ortion": 7969,
      "Ġremaining": 7970,
      "Ġhappily": 7971,
      "Ġresur": 7972,
      "Ġbelieving": 7973,
      "Ġexplicit": 7974,
      "ĠWhatever": 7975,
      "ERE": 7976,
      "Ġourselves": 7977,
      "ĠDean": 7978,
      "Ġassault": 7979,
      "ĠFranco": 7980,
      "ĠRoberts": 7981,
      "Ġstrangely": 7982,
      "ĠElvis": 7983,
      "Ġmeaningless": 7984,
      "ĠBrando": 7985,
      "Ġhooked": 7986,
      "Ġbreasts": 7987,
      "Ġhorrendous": 7988,
      "hill": 7989,
      "iar": 7990,
      "jud": 7991,
      "rd": 7992,
      "only": 7993,
      "icop": 7994,
      "Ġeccentric": 7995,
      "imag": 7996,
      "iments": 7997,
      "ĠCD": 7998,
      "ĠCold": 7999,
      "ĠHop": 8000,
      "ĠHank": 8001,
      "Ġareas": 8002,
      "Ġchasing": 8003,
      "Ġallowing": 8004,
      "ĠLos": 8005,
      "ĠFire": 8006,
      "Ġramp": 8007,
      "ĠRaj": 8008,
      "ĠEX": 8009,
      "Ġfeed": 8010,
      "----": 8011,
      "cover": 8012,
      "ĠMacy": 8013,
      "Ġinsulting": 8014,
      "Ġencounters": 8015,
      "Ġingen": 8016,
      "ĠZombie": 8017,
      "Ġtroubled": 8018,
      "Ġrepetitive": 8019,
      "ĠKapoor": 8020,
      "iable": 8021,
      "mel": 8022,
      "makers": 8023,
      "zilla": 8024,
      "Ġtied": 8025,
      "Ġfox": 8026,
      "Ġdaring": 8027,
      "lear": 8028,
      "Ġeerie": 8029,
      "Ġnut": 8030,
      "Ġheight": 8031,
      "ĠMother": 8032,
      "ession": 8033,
      "Ġexch": 8034,
      "ĠRub": 8035,
      "assy": 8036,
      "Ġoffering": 8037,
      "weight": 8038,
      "Ġslick": 8039,
      "Ġdiff": 8040,
      "ĠThree": 8041,
      "Ġeditor": 8042,
      "ĠBlair": 8043,
      "ĠScot": 8044,
      "Ġcountless": 8045,
      "ĠDanes": 8046,
      "Ġnonetheless": 8047,
      "Ġdancer": 8048,
      "Ġscientists": 8049,
      "Ġcolorful": 8050,
      "ĠPolice": 8051,
      "ĠLucas": 8052,
      "Ġstretch": 8053,
      "Ġinevitable": 8054,
      "itizen": 8055,
      "Ġpsychiatrist": 8056,
      "ĠFelix": 8057,
      "ĠArnold": 8058,
      "SS": 8059,
      "Ġfabulous": 8060,
      "ata": 8061,
      "Ġthrew": 8062,
      "Ġpushed": 8063,
      "ila": 8064,
      "Ġsevent": 8065,
      "ĠBall": 8066,
      "ĠCode": 8067,
      "ĠHas": 8068,
      "Ġshall": 8069,
      "ĠWow": 8070,
      "ĠLand": 8071,
      "Ġranks": 8072,
      "ĠRa": 8073,
      "ĠRather": 8074,
      "Ġintention": 8075,
      "Ġmanager": 8076,
      "ĠKar": 8077,
      "Ġclown": 8078,
      "pleasant": 8079,
      "Ġdisease": 8080,
      "Ġworkers": 8081,
      "Ġbeings": 8082,
      "ĠVo": 8083,
      "Ġhorrors": 8084,
      "ointed": 8085,
      "Ġstranger": 8086,
      "Ġlacked": 8087,
      "Ġselfish": 8088,
      "Ġannoyed": 8089,
      "uclear": 8090,
      "Ġpsychotic": 8091,
      "Ġimportantly": 8092,
      "Ġnearby": 8093,
      "ĠNext": 8094,
      "ĠConn": 8095,
      "Ġacceptable": 8096,
      "Ġachieved": 8097,
      "ĠGolden": 8098,
      "Ġsegments": 8099,
      "Ġfrustrated": 8100,
      "Ġgradually": 8101,
      "Ġcharismatic": 8102,
      "Ġassociated": 8103,
      "Ġmiserably": 8104,
      "original": 8105,
      "onestly": 8106,
      "Ġrestaurant": 8107,
      "OD": 8108,
      "bu": 8109,
      "mail": 8110,
      "ped": 8111,
      "Ġtax": 8112,
      "Ġbold": 8113,
      "Ġcave": 8114,
      "Ġhates": 8115,
      "Ġhunting": 8116,
      "alo": 8117,
      "Ġstated": 8118,
      "ams": 8119,
      "rial": 8120,
      "Ġcha": 8121,
      "Ġdoors": 8122,
      "Ġabys": 8123,
      "ĠLake": 8124,
      "umble": 8125,
      "igo": 8126,
      "erek": 8127,
      "Ġslave": 8128,
      "ertainly": 8129,
      "Ġexplore": 8130,
      "Ġcovers": 8131,
      "ĠReyn": 8132,
      "Ġeasier": 8133,
      "ologist": 8134,
      "Ġexceptional": 8135,
      "Ġclosely": 8136,
      "unky": 8137,
      "Ġstruck": 8138,
      "ĠPerry": 8139,
      "Ġmarks": 8140,
      "Ġmiles": 8141,
      "Ġreplace": 8142,
      "ĠFoxx": 8143,
      "ĠLOVE": 8144,
      "ĠBrooklyn": 8145,
      "Ġbust": 8146,
      "itudes": 8147,
      "ĠAz": 8148,
      "ĠBus": 8149,
      "ĠMitchell": 8150,
      "Ġnotch": 8151,
      "ĠCagney": 8152,
      "Ġplague": 8153,
      "Ġvicious": 8154,
      "ellar": 8155,
      "acies": 8156,
      "Ġabsence": 8157,
      "Ġuseless": 8158,
      "Ġexpensive": 8159,
      "ĠScar": 8160,
      "Ġcorpse": 8161,
      "Ġmisunder": 8162,
      "Ġopposed": 8163,
      "Ġsexuality": 8164,
      "Ġinspiring": 8165,
      "Ġloser": 8166,
      "Ġthreatening": 8167,
      "Ġhighlights": 8168,
      "Ġresemblance": 8169,
      "ĠNevertheless": 8170,
      "ĠSullivan": 8171,
      "writers": 8172,
      "?).": 8173,
      "gers": 8174,
      "town": 8175,
      "Ġtons": 8176,
      "Ġwanna": 8177,
      "isions": 8178,
      "Ġbang": 8179,
      "Ġbanned": 8180,
      "Ġhung": 8181,
      "Ġpush": 8182,
      "Ġstead": 8183,
      "ĠMild": 8184,
      "ĠWoman": 8185,
      "think": 8186,
      "umsy": 8187,
      "Ġsloppy": 8188,
      "othic": 8189,
      "Ġhelicop": 8190,
      "Ġburied": 8191,
      "Ġbucks": 8192,
      "Ġriding": 8193,
      "Ġilleg": 8194,
      "Ġengaged": 8195,
      "Ġprogress": 8196,
      "Ġprofessor": 8197,
      "ĠStreep": 8198,
      "Ġreceive": 8199,
      "Ġidentify": 8200,
      "Ġsurrounded": 8201,
      "Ġstealing": 8202,
      "Ġmelodramatic": 8203,
      "Ġthousand": 8204,
      "Ġsubsequent": 8205,
      "Ġsplendid": 8206,
      "70": 8207,
      "Qu": 8208,
      "cont": 8209,
      "den": 8210,
      "lon": 8211,
      "Ġ_": 8212,
      "Ġtires": 8213,
      "Ġafore": 8214,
      "Ġsand": 8215,
      "ingers": 8216,
      "Ġhood": 8217,
      "ĠIce": 8218,
      "Ġgimm": 8219,
      "Ġnotorious": 8220,
      "ĠCatholic": 8221,
      "Ġalbeit": 8222,
      "Ġvent": 8223,
      "ĠFonda": 8224,
      "Ġrhy": 8225,
      "ĠRoll": 8226,
      "ĠRiver": 8227,
      "ĠGive": 8228,
      "ĠItaly": 8229,
      "elli": 8230,
      "ĠKath": 8231,
      "Ġpretend": 8232,
      "Ġamuse": 8233,
      "Ġspooky": 8234,
      "Ġgrou": 8235,
      "Ġunderground": 8236,
      "Ġenjoys": 8237,
      "Ġembr": 8238,
      "Ġreluct": 8239,
      "Its": 8240,
      "ortunately": 8241,
      "Ġpleased": 8242,
      "Ġthrills": 8243,
      "oiler": 8244,
      "Ġfuturistic": 8245,
      "Before": 8246,
      "Ġurban": 8247,
      "Ġwonders": 8248,
      "Ġchoreography": 8249,
      "Ġsacrifice": 8250,
      "ĠHelen": 8251,
      "Ġreduced": 8252,
      "Ġemphasis": 8253,
      "Ġcrisis": 8254,
      "Ġtoilet": 8255,
      "Bas": 8256,
      "Great": 8257,
      "Night": 8258,
      "Rich": 8259,
      "Su": 8260,
      "corn": 8261,
      "fact": 8262,
      "paced": 8263,
      "school": 8264,
      "Ġbul": 8265,
      "orc": 8266,
      "Ġpays": 8267,
      "oms": 8268,
      "Ġnuclear": 8269,
      "ilted": 8270,
      "Ġstood": 8271,
      "ĠSally": 8272,
      "ĠArab": 8273,
      "ĠMass": 8274,
      "terday": 8275,
      "ĠCour": 8276,
      "ersh": 8277,
      "Ġalb": 8278,
      "ĠPort": 8279,
      "ĠPars": 8280,
      "Ġunpleasant": 8281,
      "Ġnoble": 8282,
      "ĠKyle": 8283,
      "ĠKaren": 8284,
      "Ġblast": 8285,
      "Ġgrasp": 8286,
      "Ġrelent": 8287,
      "Ġharder": 8288,
      "Ġglory": 8289,
      "Ġmisses": 8290,
      "Ġfailing": 8291,
      "Ġbrilliance": 8292,
      "arrel": 8293,
      "Ġbackgrounds": 8294,
      "spector": 8295,
      "Ġrapid": 8296,
      "ĠAlexander": 8297,
      "ĠMuslim": 8298,
      "Ġcowboy": 8299,
      "Ġlogical": 8300,
      "ĠPicture": 8301,
      "ĠCameron": 8302,
      "ĠGarbo": 8303,
      "Sec": 8304,
      "Very": 8305,
      "uity": 8306,
      "why": 8307,
      "atics": 8308,
      "Ġdust": 8309,
      "Ġinform": 8310,
      "Ġech": 8311,
      "ala": 8312,
      "aled": 8313,
      "iled": 8314,
      "Ġstabb": 8315,
      "ĠBug": 8316,
      "ĠCre": 8317,
      "ĠConsider": 8318,
      "ĠHolly": 8319,
      "ĠDerek": 8320,
      "Ġabilities": 8321,
      "ĠFather": 8322,
      "ĠRuth": 8323,
      "Ġaged": 8324,
      "ciating": 8325,
      "Ġapolog": 8326,
      "Ġtitled": 8327,
      "shot": 8328,
      "ĠManhattan": 8329,
      "ĠMcL": 8330,
      "Ġplanning": 8331,
      "ĠNeed": 8332,
      "udden": 8333,
      "ĠComedy": 8334,
      "Ġjudg": 8335,
      "Ġimproved": 8336,
      "Ġcompetition": 8337,
      "Ġcommercials": 8338,
      "mission": 8339,
      "Ġsymbolism": 8340,
      "Ġobscure": 8341,
      "ĠKennedy": 8342,
      "Ġalcohol": 8343,
      "Ġscratch": 8344,
      "ĠKorean": 8345,
      "Ġcringe": 8346,
      "redictable": 8347,
      "Ġkitchen": 8348,
      "ĠReynolds": 8349,
      "Ge": 8350,
      "loyd": 8351,
      "video": 8352,
      "Ġtame": 8353,
      "Ġsize": 8354,
      "nda": 8355,
      "atched": 8356,
      "ora": 8357,
      "Ġlabor": 8358,
      "ĠTur": 8359,
      "ĠMake": 8360,
      "ĠCIA": 8361,
      "Ġjew": 8362,
      "ĠDri": 8363,
      "Ġwhoever": 8364,
      "Ġkicks": 8365,
      "Ġalike": 8366,
      "istory": 8367,
      "ĠLog": 8368,
      "Ġintent": 8369,
      "ĠGreg": 8370,
      "ĠGabr": 8371,
      "Ġclumsy": 8372,
      "Ġroot": 8373,
      "ĠChuck": 8374,
      "Ġflu": 8375,
      "Ġhorrid": 8376,
      "wered": 8377,
      "ographed": 8378,
      "Ġdialogs": 8379,
      "Ġpossibility": 8380,
      "Ġgenerous": 8381,
      "oilers": 8382,
      "Ġcommented": 8383,
      "oviet": 8384,
      "Ġfourth": 8385,
      "bsolute": 8386,
      "Ġdefend": 8387,
      "Ġurge": 8388,
      "ĠDuke": 8389,
      "ĠBerg": 8390,
      "Ġingred": 8391,
      "Ġbathroom": 8392,
      "ĠWhether": 8393,
      "Ġhysterical": 8394,
      "Ġoverlooked": 8395,
      "Ġvideos": 8396,
      "ĠCusack": 8397,
      "ĠDawson": 8398,
      "ĠMildred": 8399,
      "Te": 8400,
      "bi": 8401,
      "oided": 8402,
      "ĠâĢ": 8403,
      "Ġought": 8404,
      "Ġhire": 8405,
      "Ġlit": 8406,
      "Ġbefriend": 8407,
      "Ġmoon": 8408,
      "idel": 8409,
      "keys": 8410,
      "irley": 8411,
      "ĠMill": 8412,
      "cket": 8413,
      "Ġjazz": 8414,
      "Ġplant": 8415,
      "Ġnep": 8416,
      "Ġoutcome": 8417,
      "Ġoverrated": 8418,
      "eremy": 8419,
      "ĠVamp": 8420,
      "ruciating": 8421,
      "Ġkillings": 8422,
      "lik": 8423,
      "ĠShah": 8424,
      "Ġheaded": 8425,
      "ĠUnlike": 8426,
      "ĠUncle": 8427,
      "Ġdefinite": 8428,
      "onym": 8429,
      "Ġavoided": 8430,
      "Ġpicking": 8431,
      "Ġlimit": 8432,
      "Ġscientific": 8433,
      "Ġblend": 8434,
      "Ġjumping": 8435,
      "ĠCraven": 8436,
      "Ġachievement": 8437,
      "minded": 8438,
      "Ġwebsite": 8439,
      "rocodile": 8440,
      "\";": 8441,
      "gren": 8442,
      "ration": 8443,
      "Ġwann": 8444,
      "itanic": 8445,
      "esis": 8446,
      "Ġdub": 8447,
      "icing": 8448,
      "stin": 8449,
      "Ġbeer": 8450,
      "ĠTem": 8451,
      "Ġstro": 8452,
      "Ġstorm": 8453,
      "idy": 8454,
      "ĠSol": 8455,
      "Ġjungle": 8456,
      "ĠFro": 8457,
      "Ġruth": 8458,
      "Ġconce": 8459,
      "ours": 8460,
      "Ġrocks": 8461,
      "Ġaging": 8462,
      "angel": 8463,
      "Ġinstantly": 8464,
      "Ġcats": 8465,
      "Ġdevast": 8466,
      "Ġreturning": 8467,
      "ĠMatrix": 8468,
      "Ġstrike": 8469,
      "Ġobser": 8470,
      "Ġbands": 8471,
      "Ġcurs": 8472,
      "Ġrevealing": 8473,
      "Ġmachines": 8474,
      "Ġdigital": 8475,
      "Ġbeliefs": 8476,
      "Ġhypnot": 8477,
      "Ġticket": 8478,
      "ĠAntonioni": 8479,
      "ĠWallace": 8480,
      "Ġconsequences": 8481,
      "ĠSatan": 8482,
      "Ġinvisible": 8483,
      "Pe": 8484,
      "Please": 8485,
      "Tom": 8486,
      "cies": 8487,
      "die": 8488,
      "dest": 8489,
      "Ġcorn": 8490,
      "oric": 8491,
      "aning": 8492,
      "Ġdict": 8493,
      "ĠIra": 8494,
      "ĠImp": 8495,
      "Ġrebell": 8496,
      "Ġstir": 8497,
      "Ġsticks": 8498,
      "ĠMun": 8499,
      "ĠCox": 8500,
      "ĠHBO": 8501,
      "ĠWitch": 8502,
      "ulated": 8503,
      "estic": 8504,
      "ĠLloyd": 8505,
      "Ġworried": 8506,
      "Ġris": 8507,
      "Ġrow": 8508,
      "Ġconven": 8509,
      "Ġune": 8510,
      "Ġmaniac": 8511,
      "ĠOz": 8512,
      "plo": 8513,
      "Ġprecise": 8514,
      "Ġadoles": 8515,
      "Ġdismiss": 8516,
      "Ġblank": 8517,
      "Ġrive": 8518,
      "Ġrain": 8519,
      "issy": 8520,
      "Ġreads": 8521,
      "Ġconsistent": 8522,
      "Ġdialogues": 8523,
      "ecess": 8524,
      "Ġexpos": 8525,
      "Ġtales": 8526,
      "ĠSpike": 8527,
      "veloped": 8528,
      "okemon": 8529,
      "Ġdemons": 8530,
      "Ġridiculously": 8531,
      "ATCH": 8532,
      "Still": 8533,
      "Ġcombat": 8534,
      "Ġstunts": 8535,
      "Ġignored": 8536,
      "Once": 8537,
      "related": 8538,
      "Ġcontinued": 8539,
      "Ġdefeat": 8540,
      "Ġclothing": 8541,
      "Ġunwatch": 8542,
      "Ġphilosophy": 8543,
      "Ġlyrics": 8544,
      "ĠBakshi": 8545,
      "Dan": 8546,
      "Other": 8547,
      "ni": 8548,
      "too": 8549,
      "wen": 8550,
      "Ġwip": 8551,
      "Ġwrap": 8552,
      "Ġbin": 8553,
      "atum": 8554,
      "enger": 8555,
      "Ġthirty": 8556,
      "Ġpsy": 8557,
      "ĠIan": 8558,
      "Ġease": 8559,
      "ĠSet": 8560,
      "ĠSPOILERS": 8561,
      "ĠHurt": 8562,
      "ĠLisa": 8563,
      "venile": 8564,
      "aph": 8565,
      "Ġsettle": 8566,
      "Ġfarce": 8567,
      "Ġdistance": 8568,
      "Ġfocusing": 8569,
      "Ġphotos": 8570,
      "Ġmovements": 8571,
      "ĠWarren": 8572,
      "ARD": 8573,
      "Ġgrandmother": 8574,
      "Ġmodels": 8575,
      "ĠGoldberg": 8576,
      "Ġessence": 8577,
      "Ġsouls": 8578,
      "Ġburned": 8579,
      "Ġdiscussion": 8580,
      "Ġphotographed": 8581,
      "Ġfrustration": 8582,
      "ĠEva": 8583,
      "Ġarrested": 8584,
      "rehensible": 8585,
      "Perhaps": 8586,
      "Ġelaborate": 8587,
      "Ġaforementioned": 8588,
      "40": 8589,
      "See": 8590,
      "des": 8591,
      "got": 8592,
      "uable": 8593,
      "hey": 8594,
      "Ġwest": 8595,
      "erning": 8596,
      "itar": 8597,
      "athy": 8598,
      "enes": 8599,
      "orus": 8600,
      "otal": 8601,
      "ĠMY": 8602,
      "raw": 8603,
      "oples": 8604,
      "ĠPot": 8605,
      "aude": 8606,
      "ortal": 8607,
      "Ġfears": 8608,
      "icking": 8609,
      "perfect": 8610,
      "obi": 8611,
      "Ġtea": 8612,
      "Ġremoved": 8613,
      "Ġdesce": 8614,
      "ĠShell": 8615,
      "gger": 8616,
      "Ġstring": 8617,
      "Ġfancy": 8618,
      "Ġcreators": 8619,
      "Ġelsewhere": 8620,
      "ĠClint": 8621,
      "Ġindul": 8622,
      "Ġdrivel": 8623,
      "Ġproviding": 8624,
      "mares": 8625,
      "ĠIndians": 8626,
      "urious": 8627,
      "Ġpleasantly": 8628,
      "arrell": 8629,
      "ĠCheck": 8630,
      "ĠTimothy": 8631,
      "Ġburning": 8632,
      "Ġprimary": 8633,
      "Ġfortune": 8634,
      "Ġimplausible": 8635,
      "Ġcompanion": 8636,
      "Ġsolely": 8637,
      "ĠNEVER": 8638,
      "Ġcaptivating": 8639,
      "ĠDragon": 8640,
      "Ġterritory": 8641,
      "HA": 8642,
      "RY": 8643,
      "rim": 8644,
      "vier": 8645,
      "Ġbone": 8646,
      "oral": 8647,
      "Ġthugs": 8648,
      "llen": 8649,
      "icism": 8650,
      "Ġnuts": 8651,
      "ado": 8652,
      "ĠSPOILER": 8653,
      "ĠMars": 8654,
      "ĠDays": 8655,
      "Ġexotic": 8656,
      "acters": 8657,
      "aks": 8658,
      "ĠFOR": 8659,
      "aux": 8660,
      "ĠEp": 8661,
      "ĠEst": 8662,
      "Ġargue": 8663,
      "Ġadul": 8664,
      "aware": 8665,
      "Ġfunction": 8666,
      "izable": 8667,
      "cia": 8668,
      "ionship": 8669,
      "Ġperforming": 8670,
      "Ġgrows": 8671,
      "Ġsett": 8672,
      "Ġtrio": 8673,
      "ĠShaw": 8674,
      "Ġinstinct": 8675,
      "ĠThink": 8676,
      "Ġexposed": 8677,
      "Ġconvol": 8678,
      "undgren": 8679,
      "Ġreturned": 8680,
      "Ġforgive": 8681,
      "Ġunfair": 8682,
      "Ġtrend": 8683,
      "ĠJuliet": 8684,
      "plicity": 8685,
      "ĠDenzel": 8686,
      "ĠWinters": 8687,
      "Ġmotivation": 8688,
      "ĠMiike": 8689,
      "ĠWorst": 8690,
      "Ġcameras": 8691,
      "Ġastonishing": 8692,
      "Ġmesmer": 8693,
      "Dr": 8694,
      "box": 8695,
      "foot": 8696,
      "har": 8697,
      "woman": 8698,
      "Ġ;": 8699,
      "Ġtang": 8700,
      "Ġsaf": 8701,
      "enstein": 8702,
      "Ġhes": 8703,
      "Ġasse": 8704,
      "ĠAlf": 8705,
      "Ġplat": 8706,
      "aga": 8707,
      "ĠFalk": 8708,
      "ĠJer": 8709,
      "Ġjustify": 8710,
      "ĠEver": 8711,
      "never": 8712,
      "ĠChamber": 8713,
      "obic": 8714,
      "Ġgotta": 8715,
      "Ġsmoke": 8716,
      "Ġabsorb": 8717,
      "Ġglamor": 8718,
      "Ġexcruciating": 8719,
      "ĠArgent": 8720,
      "Ġsidekick": 8721,
      "Ġpopcorn": 8722,
      "Ġcatches": 8723,
      "gypt": 8724,
      "Ġredempt": 8725,
      "Ġembarrassment": 8726,
      "Ġblew": 8727,
      "Ġarrive": 8728,
      "Ġghosts": 8729,
      "ĠCraw": 8730,
      "Ġdragon": 8731,
      "Ġmountains": 8732,
      "Ġresembles": 8733,
      "Ġduo": 8734,
      "ĠNazis": 8735,
      "ĠCastle": 8736,
      "Ġinvolvement": 8737,
      "Ġprostitute": 8738,
      "ulsive": 8739,
      "Ġthroat": 8740,
      "ĠSNL": 8741,
      "Ġportrait": 8742,
      "ĠVoight": 8743,
      "Ġgroups": 8744,
      "Ġunwatchable": 8745,
      "James": 8746,
      "break": 8747,
      "maybe": 8748,
      "tain": 8749,
      "worthy": 8750,
      "Ġ**": 8751,
      "Ġaunt": 8752,
      "Ġfaster": 8753,
      "Ġfrag": 8754,
      "Ġmaid": 8755,
      "ingu": 8756,
      "Ġtoy": 8757,
      "Ġtopless": 8758,
      "Ġgall": 8759,
      "Ġchain": 8760,
      "ĠPersonally": 8761,
      "ĠRings": 8762,
      "Ġconve": 8763,
      "ĠJac": 8764,
      "Ġintr": 8765,
      "Ġprops": 8766,
      "Ġuneven": 8767,
      "ĠKirk": 8768,
      "obody": 8769,
      "Ġcoach": 8770,
      "ĠChristy": 8771,
      "ĠReal": 8772,
      "Ġguessed": 8773,
      "Ġpredecess": 8774,
      "Ġdemands": 8775,
      "Ġiron": 8776,
      "ĠGrade": 8777,
      "Ġtechnically": 8778,
      "ĠGodzilla": 8779,
      "Ġsolve": 8780,
      "Ġpremie": 8781,
      "Ġboxing": 8782,
      "Ġslightest": 8783,
      "Ġclimb": 8784,
      "Ġobserv": 8785,
      "Ġbleak": 8786,
      "Ġpractice": 8787,
      "ĠCorb": 8788,
      "Ġdrunken": 8789,
      "Ġgolden": 8790,
      "handed": 8791,
      "ĠCarrie": 8792,
      "Ġsedu": 8793,
      "Ġunsett": 8794,
      "Ġdeliberately": 8795,
      "Ġmontage": 8796,
      "Pro": 8797,
      "Ġsib": 8798,
      "Ġsarc": 8799,
      "Ġbes": 8800,
      "Ġcul": 8801,
      "Ġhitting": 8802,
      "imated": 8803,
      "ĠSoviet": 8804,
      "ĠMey": 8805,
      "ĠHot": 8806,
      "Ġcomfort": 8807,
      "ĠPam": 8808,
      "ĠRat": 8809,
      "ĠNavy": 8810,
      "udos": 8811,
      "ablish": 8812,
      "Ġprecious": 8813,
      "Ġawe": 8814,
      "Ġthoughtful": 8815,
      "Ġkidding": 8816,
      "Ġpersona": 8817,
      "Ġcareers": 8818,
      "ovsky": 8819,
      "Ġtalked": 8820,
      "ĠBlake": 8821,
      "Ġdistant": 8822,
      "Ġweakest": 8823,
      "Ġsnake": 8824,
      "Ġcountryside": 8825,
      "ĠNeil": 8826,
      "Ġpubl": 8827,
      "Ġoddly": 8828,
      "Ġflawless": 8829,
      "Ġtrees": 8830,
      "Ġrobots": 8831,
      "ĠGuy": 8832,
      "ĠExcellent": 8833,
      "Ġballet": 8834,
      "ropriately": 8835,
      "Ġinvestigate": 8836,
      "ĠBobby": 8837,
      "ĠAngeles": 8838,
      "ĠNorman": 8839,
      "ĠONE": 8840,
      "Ġdozens": 8841,
      "Ġhints": 8842,
      "ĠSilver": 8843,
      "Ġjuvenile": 8844,
      "Ġinventive": 8845,
      "Ġlandscape": 8846,
      "Ġoutrageous": 8847,
      "Ġstrictly": 8848,
      "Ġdignity": 8849,
      "Ġadequate": 8850,
      "MAN": 8851,
      "PS": 8852,
      "funny": 8853,
      "zen": 8854,
      "Ġ=": 8855,
      "Ġack": 8856,
      "Ġward": 8857,
      "Ġbill": 8858,
      "Ġcandy": 8859,
      "llo": 8860,
      "Ġpa": 8861,
      "leton": 8862,
      "Ġbeats": 8863,
      "sect": 8864,
      "amera": 8865,
      "ĠSing": 8866,
      "ĠSold": 8867,
      "ĠSister": 8868,
      "ĠMach": 8869,
      "ĠCut": 8870,
      "ĠDave": 8871,
      "Ġsuited": 8872,
      "agine": 8873,
      "astically": 8874,
      "uming": 8875,
      "ĠGrey": 8876,
      "ĠGriff": 8877,
      "respect": 8878,
      "Ġwatches": 8879,
      "Ġtrade": 8880,
      "nered": 8881,
      "cience": 8882,
      "Ġperformer": 8883,
      "Ġchest": 8884,
      "nery": 8885,
      "Ġletter": 8886,
      "Ġportion": 8887,
      "annels": 8888,
      "ĠMario": 8889,
      "ĠArm": 8890,
      "Ġsadness": 8891,
      "ĠSept": 8892,
      "oubted": 8893,
      "Ġadmitted": 8894,
      "Ġsecretary": 8895,
      "ambo": 8896,
      "Ġsympath": 8897,
      "Ġclosest": 8898,
      "Ġaffected": 8899,
      "Ġexplosion": 8900,
      "ĠJudy": 8901,
      "ĠLeonard": 8902,
      "Ġbonus": 8903,
      "Ġfloating": 8904,
      "Ġoverwhelming": 8905,
      "Ġhence": 8906,
      "Ġdinosaurs": 8907,
      "Ġisolated": 8908,
      "Ġmetaphor": 8909,
      "ĠTurner": 8910,
      "Richard": 8911,
      "ĠCrawford": 8912,
      "Ġacknow": 8913,
      "CE": 8914,
      "Hey": 8915,
      "Ser": 8916,
      "aith": 8917,
      "sa": 8918,
      "Ġtall": 8919,
      "Ġfoul": 8920,
      "oured": 8921,
      "Ġstaff": 8922,
      "cean": 8923,
      "ĠApart": 8924,
      "irts": 8925,
      "ĠMet": 8926,
      "ĠMarsh": 8927,
      "raight": 8928,
      "raged": 8929,
      "ĠHopper": 8930,
      "ĠHugh": 8931,
      "Ġshout": 8932,
      "Ġchannels": 8933,
      "ĠWard": 8934,
      "Ġjaw": 8935,
      "ĠDown": 8936,
      "elch": 8937,
      "arts": 8938,
      "Ġalas": 8939,
      "Ġouts": 8940,
      "ĠFX": 8941,
      "ĠFisher": 8942,
      "ĠRow": 8943,
      "ĠRitter": 8944,
      "ĠGadget": 8945,
      "Ġdisli": 8946,
      "Ġbless": 8947,
      "Ġblows": 8948,
      "Ġsport": 8949,
      "Ġcompassion": 8950,
      "Ġacclaim": 8951,
      "Ġbugs": 8952,
      "Ġinstant": 8953,
      "Ġcoherent": 8954,
      "ERS": 8955,
      "phant": 8956,
      "Ġdepressed": 8957,
      "Ġ45": 8958,
      "Ġmessed": 8959,
      "Ġpasses": 8960,
      "Ġstaying": 8961,
      "Ġproducing": 8962,
      "Ġexploit": 8963,
      "Ġdisturbed": 8964,
      "ĠWoods": 8965,
      "Ġattracted": 8966,
      "Ġsucceeded": 8967,
      "ffee": 8968,
      "Ġhatred": 8969,
      "otesque": 8970,
      "Ġproceedings": 8971,
      "ĠREAL": 8972,
      "ĠAshley": 8973,
      "ĠDorothy": 8974,
      "Ġfinancial": 8975,
      "thriller": 8976,
      "Ġtiresome": 8977,
      "Av": 8978,
      "Go": 8979,
      "HING": 8980,
      "RO": 8981,
      "van": 8982,
      "Ġsill": 8983,
      "Ġmixt": 8984,
      "Ġpatter": 8985,
      "Ġreck": 8986,
      "verty": 8987,
      "verted": 8988,
      "ooges": 8989,
      "ĠHills": 8990,
      "pel": 8991,
      "ĠPy": 8992,
      "ĠNet": 8993,
      "ĠNorm": 8994,
      "Ġups": 8995,
      "ellers": 8996,
      "...)": 8997,
      "Ġdisplays": 8998,
      "Ġflight": 8999,
      "izz": 9000,
      "Ġpray": 9001,
      "ĠAlmost": 9002,
      "Ġfactory": 9003,
      "kshay": 9004,
      "ĠShirley": 9005,
      "Ġclasses": 9006,
      "ĠScr": 9007,
      "ĠAtt": 9008,
      "ĠWillis": 9009,
      "Ġcollabor": 9010,
      "Ġvalid": 9011,
      "Ġimportance": 9012,
      "Ġsuspicious": 9013,
      "Ġphoto": 9014,
      "Ġstrikes": 9015,
      "Ġspoiled": 9016,
      "Ġrecognized": 9017,
      "Ġbedroom": 9018,
      "Ġdrawing": 9019,
      "ĠSeries": 9020,
      "Ġbullets": 9021,
      "ĠAdams": 9022,
      "Ġdimensional": 9023,
      "ĠWalker": 9024,
      "Ġblockbuster": 9025,
      "ĠScience": 9026,
      "ĠMiy": 9027,
      "ructive": 9028,
      "ĠKhan": 9029,
      "ĠModesty": 9030,
      "Ġinhabit": 9031,
      "Ġelegant": 9032,
      "Ġinnovative": 9033,
      "Ġnewspaper": 9034,
      "Ġartificial": 9035,
      "Ġconvoluted": 9036,
      "99": 9037,
      "dri": 9038,
      "fu": 9039,
      "hin": 9040,
      "hind": 9041,
      "lings": 9042,
      "rink": 9043,
      "Ġsail": 9044,
      "Ġmaker": 9045,
      "Ġpin": 9046,
      "Ġpitch": 9047,
      "Ġdre": 9048,
      "Ġinane": 9049,
      "ican": 9050,
      "brick": 9051,
      "Ġstress": 9052,
      "Ġanx": 9053,
      "ĠSirk": 9054,
      "rier": 9055,
      "ĠMiles": 9056,
      "ravel": 9057,
      "ĠCandy": 9058,
      "Ġsham": 9059,
      "Ġchased": 9060,
      "uloid": 9061,
      "Ġsuits": 9062,
      "Ġvon": 9063,
      "Ġdear": 9064,
      "andra": 9065,
      "ĠRoth": 9066,
      "ptly": 9067,
      "Ġleague": 9068,
      "Ġshelf": 9069,
      "ĠKaz": 9070,
      "ĠKitty": 9071,
      "Ġimplic": 9072,
      "Ġpoverty": 9073,
      "Ġuser": 9074,
      "anson": 9075,
      "ĠChase": 9076,
      "ĠUwe": 9077,
      "alking": 9078,
      "Ġcrimes": 9079,
      "Ġgenres": 9080,
      "Ġsmoking": 9081,
      "Ġscripted": 9082,
      "Ġhanded": 9083,
      "Ġinstit": 9084,
      "ĠMarc": 9085,
      "ugene": 9086,
      "Ġregul": 9087,
      "Ġdetailed": 9088,
      "!!!!!": 9089,
      "Ġbuilds": 9090,
      "Ġrequire": 9091,
      "ĠAntw": 9092,
      "Ġmerit": 9093,
      "Ġoccurred": 9094,
      "ĠJesse": 9095,
      "Ġsuspects": 9096,
      "Ġindividuals": 9097,
      "Black": 9098,
      "ĠSyd": 9099,
      "ĠMontana": 9100,
      "ĠGandhi": 9101,
      "Ġblatant": 9102,
      "oubtedly": 9103,
      "Che": 9104,
      "Look": 9105,
      "Or": 9106,
      "hour": 9107,
      "Ġmuse": 9108,
      "Ġmudd": 9109,
      "Ġbog": 9110,
      "Ġce": 9111,
      "Ġpants": 9112,
      "Ġdances": 9113,
      "also": 9114,
      "ĠTerry": 9115,
      "Ġshine": 9116,
      "Ġje": 9117,
      "emark": 9118,
      "Ġdoomed": 9119,
      "ĠPie": 9120,
      "ĠLundgren": 9121,
      "Ġrural": 9122,
      "ĠRE": 9123,
      "Ġtimeless": 9124,
      "oder": 9125,
      "ansas": 9126,
      "Ġrecon": 9127,
      "Ġ21": 9128,
      "Ġworlds": 9129,
      "arents": 9130,
      "Ġsuperhero": 9131,
      "Ġelev": 9132,
      "eryl": 9133,
      "Ġdarker": 9134,
      "ĠCarter": 9135,
      "Ġmurderous": 9136,
      "Ġcinematographer": 9137,
      "195": 9138,
      "196": 9139,
      "ĠPlay": 9140,
      "Ġ2005": 9141,
      "Ġsecretly": 9142,
      "Ġwitches": 9143,
      "Ġdestroying": 9144,
      "OME": 9145,
      "Ġraped": 9146,
      "Donald": 9147,
      "Ġprimarily": 9148,
      "Ġphilosoph": 9149,
      "Ġbuddies": 9150,
      "Ġmixture": 9151,
      "God": 9152,
      "water": 9153,
      "Ġwack": 9154,
      "ouch": 9155,
      "Ġgro": 9156,
      "otte": 9157,
      "adine": 9158,
      "ĠBS": 9159,
      "ĠBiko": 9160,
      "urg": 9161,
      "Ġnotably": 9162,
      "ĠCA": 9163,
      "ĠCont": 9164,
      "ĠHung": 9165,
      "Ġshadows": 9166,
      "Ġchap": 9167,
      "ĠDin": 9168,
      "ĠDirect": 9169,
      "Ġexquis": 9170,
      "Ġcomics": 9171,
      "Ġabusive": 9172,
      "olk": 9173,
      "ĠFay": 9174,
      "Ġdism": 9175,
      "Ġcharacterization": 9176,
      "Ġafterwards": 9177,
      "Ġhumble": 9178,
      "Ġsurpass": 9179,
      "Ġexpressed": 9180,
      "Ġstudios": 9181,
      "Ġconcerning": 9182,
      "eyed": 9183,
      "Ġswear": 9184,
      "Ġtreats": 9185,
      "Ġnarrator": 9186,
      "Ġcausing": 9187,
      "Ġwinds": 9188,
      "Ġexplored": 9189,
      "Ġcontrad": 9190,
      "Ġcontrary": 9191,
      "chers": 9192,
      "Ġarrived": 9193,
      "Ġfatal": 9194,
      "ĠSeriously": 9195,
      "Ġinvestigation": 9196,
      "Ġmirac": 9197,
      "ĠJeffrey": 9198,
      "Ġconversations": 9199,
      "ĠDamon": 9200,
      "Ġbenefit": 9201,
      "Ġstinker": 9202,
      "Ġensues": 9203,
      "Ġvulgar": 9204,
      "ĠTechn": 9205,
      "ĠThroughout": 9206,
      "Ġarrogant": 9207,
      "function": 9208,
      "ĠInternational": 9209,
      "ĠIreland": 9210,
      "ĠAtlant": 9211,
      "Ġunbearable": 9212,
      "Ġpseudo": 9213,
      "Ġelderly": 9214,
      "ĠBergman": 9215,
      "stinov": 9216,
      "Ġruthless": 9217,
      "ĠShelley": 9218,
      "Can": 9219,
      "ipe": 9220,
      "jointed": 9221,
      "lam": 9222,
      "rows": 9223,
      "va": 9224,
      "Ġtie": 9225,
      "eral": 9226,
      "itle": 9227,
      "Ġdud": 9228,
      "Ġdiamond": 9229,
      "icol": 9230,
      "Ġnail": 9231,
      "Ġwhim": 9232,
      "ĠSorry": 9233,
      "ĠCould": 9234,
      "ĠHomer": 9235,
      "Ġexhib": 9236,
      "Ġcommend": 9237,
      "ested": 9238,
      "ĠGreek": 9239,
      "acks": 9240,
      "Ġgoodness": 9241,
      "Ġshowcase": 9242,
      "abs": 9243,
      "ccer": 9244,
      "Ġwhereas": 9245,
      "Ġhorrifying": 9246,
      "ĠUN": 9247,
      "Ġ22": 9248,
      "Ġimperson": 9249,
      "Ġdecisions": 9250,
      "Ġcompens": 9251,
      "Ġdifferences": 9252,
      "Ġletters": 9253,
      "Ġinterrupt": 9254,
      "Ġgrab": 9255,
      "ĠCarrey": 9256,
      "Ġcaptain": 9257,
      "Ġtypically": 9258,
      "ANT": 9259,
      "*****": 9260,
      "Ġengross": 9261,
[...]
